[PAD]
[UNK]
[CLS]
[SEP]
[MASK]
!
"
#
$
%
&
'
(
)
*
+
,
-
.
/
0
1
2
3
4
5
6
7
8
9
:
;
<
=
>
?
@
[
\
]
^
_
`
a
b
c
d
e
f
g
h
i
j
k
l
m
n
o
p
q
r
s
t
u
v
w
x
y
z
{
|
}
~
¡
£
¥
¦
§
¨
©
ª
«
¬
®
°
±
²
³
´
µ
·
¹
º
»
¼
½
¾
¿
×
ß
à
á
â
ã
ä
å
æ
ç
è
é
ê
ë
ì
í
î
ï
ð
ñ
ò
ó
ô
õ
ö
÷
ø
ù
ú
û
ü
ý
þ
ÿ
ā
ă
ą
ć
č
ď
đ
ē
ĕ
ė
ę
ě
ğ
ġ
ħ
ĩ
ī
į
ı
ĳ
ķ
ĺ
ļ
ľ
ł
ń
ņ
ň
ŋ
ō
ŏ
ő
œ
ŕ
ř
ś
ş
š
ţ
ť
ũ
ū
ŭ
ů
ű
ų
ź
ż
ž
ſ
ƒ
ơ
ư
ǎ
ǐ
ǒ
ǔ
ǝ
ǫ
ș
ț
ɐ
ɑ
ɔ
ə
ɛ
ɡ
ɪ
ɾ
ʀ
ʁ
ʃ
ʊ
ʋ
ʒ
ʰ
ʲ
ʹ
ʻ
ʼ
ʾ
ʿ
ˇ
ˈ
ˌ
ː
˚
̀
́
̃
̆
̇
̈
̉
̊
̌
̓
̣
̯
̶
͡
ά
έ
ή
ί
α
β
γ
δ
ε
ζ
η
θ
ι
κ
λ
μ
ν
ξ
ο
π
ρ
ς
σ
τ
υ
φ
χ
ψ
ω
ό
ύ
ώ
ϟ
ϡ
а
б
в
г
д
е
ж
з
и
й
к
л
м
н
о
п
р
с
т
у
ф
х
ц
ч
ш
щ
ъ
ы
ь
э
ю
я
ё
ђ
є
і
ї
ј
љ
њ
ћ
ў
џ
ѣ
ғ
қ
ҧ
ҭ
ү
ҳ
ә
ө
ա
բ
գ
դ
ե
ի
լ
կ
հ
մ
յ
ն
ո
ս
վ
տ
ր
ւ
ֆ
ְ
ֲ
ִ
ֵ
ֶ
ַ
ָ
ֹ
ּ
ׁ
ׂ
א
ב
ג
ד
ה
ו
ז
ח
ט
י
ך
כ
ל
ם
מ
ן
נ
ס
ע
ף
פ
ץ
צ
ק
ר
ש
ת
،
؟
ء
آ
أ
ؤ
إ
ئ
ا
ب
ة
ت
ث
ج
ح
خ
د
ذ
ر
ز
س
ش
ص
ض
ط
ظ
ع
غ
ـ
ف
ق
ك
ل
م
ن
ه
و
ى
ي
ً
ٍ
َ
ُ
ِ
ّ
ْ
٠
١
٢
پ
چ
ژ
ک
گ
ھ
ہ
ی
ے
ं
अ
आ
इ
ई
उ
ए
क
ख
ग
च
ज
ट
ड
ण
त
थ
द
ध
न
प
ब
भ
म
य
र
ल
व
श
ष
स
ह
़
ा
ि
ी
ु
ू
े
ै
ो
्
।
॥
া
ি
க
த
ப
ம
ர
ா
ி
்
്
ก
ง
จ
ด
ต
ท
น
บ
พ
ม
ย
ร
ล
ว
ส
ห
อ
ั
า
ิ
ี
เ
่
้
་
ག
ང
ད
ན
བ
མ
ར
ལ
ས
ི
ུ
ོ
ა
ბ
გ
დ
ე
ვ
ზ
თ
ი
კ
ლ
მ
ნ
ო
რ
ს
ტ
უ
ფ
ქ
შ
ძ
ხ
ᅠ
រ
្
ᴀ
ᴇ
ḥ
ṇ
ṛ
ṣ
ṭ
ạ
ả
ấ
ầ
ẩ
ẫ
ậ
ắ
ằ
ẳ
ẵ
ặ
ẻ
ẽ
ế
ề
ể
ễ
ệ
ỉ
ị
ọ
ỏ
ố
ồ
ổ
ỗ
ộ
ớ
ờ
ở
ỡ
ợ
ụ
ủ
ứ
ừ
ử
ữ
ự
ỳ
ỷ
ỹ
ἀ
ἄ
ἐ
ἰ
ὁ
ῖ
ῦ
ῶ
‐
‑
‒
–
—
‘
’
‚
‛
“
”
„
‟
†
•
…
‰
′
″
›
‼
⁄
€
⃣
№
™
←
↑
→
↔
⇒
∈
−
∙
∞
≈
≡
≤
≥
─
▂
█
■
▪
▫
►
●
◼
☀
★
☐
☝
☺
♀
♂
♡
♥
♦
♭
⚊
⚠
⚡
⚪
⚽
✅
✈
✊
✌
✒
✔
✖
✨
❄
❌
❗
❣
❤
➖
➡
➤
⠀
⬇
⭐
、
。
あ
い
う
お
か
が
き
く
け
こ
さ
し
す
た
だ
ち
っ
て
で
と
な
に
の
は
ま
み
も
ら
り
る
れ
を
ん
ァ
ア
ィ
イ
ウ
エ
オ
カ
ガ
キ
ク
グ
コ
ゴ
サ
シ
ジ
ス
ズ
タ
ダ
チ
ッ
ツ
テ
ト
ド
ナ
ニ
ノ
ハ
バ
パ
フ
ブ
プ
ボ
マ
ミ
ム
メ
モ
ャ
ュ
ラ
リ
ル
レ
ロ
ン
・
ー
ㅤ
一
三
上
下
中
之
九
二
井
京
人
代
伊
会
佐
信
公
北
南
原
古
台
合
和
四
国
國
地
城
大
天
太
女
子
学
安
宗
宮
家
寺
小
少
山
島
川
州
市
平
年
式
戦
手
政
文
新
方
日
明
木
本
李
村
東
松
林
株
機
正
武
民
水
江
河
治
流
海
王
生
田
町
的
皇
県
真
石
社
神
空
立
第
美
自
航
艦
花
藤
行
西
軍
道
郎
部
野
金
長
隊
飛
高
대
사
이
한
ﬁ
️
ﺍ
ﺎ
！
，
￼
𝕒
𝕖
𝕟
🇦
🇧
🇨
🇩
🇪
🇫
🇬
🇭
🇮
🇰
🇱
🇲
🇳
🇴
🇵
🇷
🇸
🇹
🇺
🇻
🇽
🇾
🇿
🌈
🌊
🌍
🌟
🌴
🌸
🌹
🎄
🎉
🎗
🎥
🏆
🏳
🏴
🏻
🏼
🏽
🏾
🐍
👇
👉
👊
👌
👍
👏
👑
💃
💋
💔
💕
💖
💙
💚
💛
💜
💥
💦
💪
💫
💯
📊
📷
📸
📹
🔥
🔴
🔹
🖤
😀
😁
😂
😄
😅
😆
😉
😊
😍
😎
😘
😜
😡
😭
😱
😳
🙂
🙄
🙈
🙌
🙏
🚨
🤔
🤗
🤣
🤦
🤩
🤪
🤷
🥰
🦁
##e
##c
##h
##r
##l
##i
##t
##á
##v
##j
##o
##ý
##m
##č
##a
##n
##s
##z
##ą
##y
##b
##k
##p
##ř
##3
##9
##1
##7
##u
##ö
##ا
##ل
##ف
##ش
##í
##é
##š
##ě
##ج
##ن
##ب
##ي
##g
##f
##ś
##d
##0
##4
##ð
##ú
##у
##м
##а
##н
##и
##т
##р
##е
##ć
##5
##q
##ó
##w
##2
##ů
##ž
##ň
##л
##x
##ş
##´
##🇰
##б
##і
##ж
##ł
##ت
##ح
##ك
##م
##8
##ի
##լ
##կ
##ո
##յ
##с
##п
##о
##з
##в
##ю
##ľ
##ü
##ď
##6
##한
##ŭ
##ť
##ã
##х
##س
##ع
##د
##ä
##̌
##ئ
##و
##ч
##к
##й
##ر
##ه
##г
##ь
##خ
##ة
##ń
##ż
##ַ
##ּ
##פ
##ו
##ח
##π
##一
##ә
##ы
##ら
##¨
##ā
##́
##ш
##×
##đ
##д
##🏽
##щ
##я
##®
##ص
##ン
##チ
##の
##機
##会
##に
##ș
##✨
##🌸
##ę
##✈
##️
##州
##ß
##ё
##ề
##ˇ
##ʿ
##ц
##ź
##ø
##γ
##ђ
##̊
##أ
##σ
##τ
##ρ
##ο
##ν
##μ
##ί
##α
##ţ
##ث
##ј
##ə
##ō
##ğ
##±
##è
##إ
##ô
##न
##ɛ
##と
##し
##て
##🇺
##🇸
##ç
##ı
##ñ
##ذ
##ً
##क
##्
##ख
##ि
##љ
##ī
##€
##🎉
##ă
##ע
##מ
##נ
##י
##ם
##ŕ
##°
##ز
##ŏ
##õ
##👍
##ץ
##ː
##²
##ë
##à
##ф
##ء
##ű
##🇧
##🇷
##ר
##ב
##ת
##ی
##💋
##ِ
##ق
##ط
##河
##̇
##ى
##ő
##💕
##🌈
##ǎ
##ְ
##ָ
##א
##ן
##ض
##ì
##э
##غ
##œ
##ė
##ÿ
##ֵ
##ֹ
##❄
##å
##ہ
##●
##⠀
##ή
##ι
##ς
##æ
##ό
##υ
##ъ
##ổ
##ū
##њ
##国
##🔥
##ω
##κ
##ー
##ド
##ア
##ト
##ț
##−
##º
##ћ
##ؤ
##כ
##ש
##ấ
##ס
##צ
##є
##😉
##î
##式
##社
##み
##フ
##ィ
##ナ
##シ
##ャ
##ル
##グ
##プ
##ằ
##β
##ׂ
##ה
##ブ
##ク
##市
##ŋ
##ï
##ῖ
##ù
##ک
##❤
##ɑ
##̃
##⃣
##ד
##ק
##山
##ζ
##η
##λ
##ά
##イ
##ミ
##江
##ა
##ვ
##ე
##რ
##ზ
##შ
##ი
##ლ
##³
##ύ
##ậ
##र
##ज
##ा
##ầ
##ז
##ө
##გ
##چ
##❣
##ძ
##が
##を
##あ
##な
##中
##で
##す
##ĕ
##ל
##ט
##े
##ķ
##ร
##ี
##ด
##̈
##ʻ
##子
##प
##ˈ
##ं
##य
##🇱
##🇪
##ך
##ѣ
##ǒ
##ò
##ल
##ु
##ṇ
##ニ
##ラ
##ह
##ε
##έ
##â
##म
##ち
##ん
##野
##町
##δ
##ạ
##θ
##ི
##ལ
##ᴇ
##ʀ
##ả
##ǐ
##û
##😜
##🙄
##💦
##國
##少
##原
##大
##🇳
##ֲ
##™
##ظ
##ª
##ņ
##ʋ
##⭐
##新
##ɐ
##ê
##ხ
##田
##گ
##ɪ
##台
##生
##水
##स
##ҭ
##💙
##🙏
##🏻
##🌊
##ų
##ξ
##ﬁ
##ố
##川
##ộ
##ტ
##ფ
##ნ
##მ
##დ
##人
##長
##🇻
##株
##ू
##た
##け
##カ
##🇴
##🇮
##ĺ
##ُ
##ّ
##👑
##χ
##方
##道
##サ
##エ
##テ
##ṭ
##ē
##ʲ
##ต
##่
##า
##ก
##ิ
##จ
##เ
##ย
##ั
##ง
##ม
##บ
##松
##ւ
##ն
##🇨
##🇿
##ג
##ư
##ợ
##ी
##ड
##़
##त
##🇵
##民
##王
##飛
##行
##इ
##ट
##ག
##ུ
##ो
##日
##¬
##💔
##💚
##公
##🤷
##♀
##😄
##地
##ῦ
##ắ
##ァ
##½
##ף
##天
##神
##ʼ
##̆
##🤗
##👇
##寺
##ए
##ग
##れ
##ま
##古
##城
##之
##部
##ϟ
##ᴀ
##ュ
##џ
##द
##ǔ
##̣
##ா
##க
##ம
##்
##伊
##政
##リ
##þ
##ジ
##😍
##🤪
##🇲
##北
##უ
##ს
##島
##☝
##ї
##🌴
##ھ
##ッ
##❗
##ր
##ե
##😡
##ǝ
##ế
##ウ
##オ
##郎
##ბ
##ქ
##©
##ʁ
##✌
##💪
##ˌ
##キ
##り
##う
##い
##𝕒
##𝕖
##َ
##マ
##年
##☀
##ể
##ོ
##信
##თ
##ო
##사
##व
##ɔ
##石
##空
##ώ
##ү
##อ
##้
##น
##🎥
##ノ
##ス
##安
##🇹
##バ
##メ
##🏼
##代
##ִ
##き
##こ
##も
##県
##⚽
##🏆
##京
##タ
##木
##女
##🤣
##😁
##😂
##😎
##آ
##ར
##φ
##ứ
##ա
##÷
##💜
##ḥ
##¹
##学
##和
##ツ
##藤
##ҧ
##か
##്
##太
##ང
##̀
##ặ
##қ
##˚
##♂
##ֶ
##च
##ļ
##😊
##😘
##🏾
##三
##下
##श
##ष
##的
##ỏ
##🤦
##👌
##្
##ṣ
##ﺎ
##🌟
##კ
##レ
##ム
##コ
##佐
##🇬
##ས
##མ
##九
##航
##隊
##ǫ
##💫
##🙌
##金
##ׁ
##西
##ɡ
##ʃ
##平
##南
##µ
##थ
##っ
##皇
##ロ
##ĳ
##く
##📸
##ण
##♥
##🏴
##ụ
##治
##🇩
##🎄
##ध
##東
##ʊ
##宗
##ў
##پ
##ズ
##パ
##ボ
##ớ
##ħ
##💛
##林
##ʹ
##ơ
##😳
##ʰ
##→
##ệ
##戦
##花
##ồ
##ـ
##̉
##ị
##ダ
##া
##💖
##ท
##🙈
##ử
##ս
##🇦
##🚨
##ٍ
##海
##դ
##տ
##ゴ
##明
##👉
##流
##🔴
##🌍
##⚠
##ғ
##ﺍ
##ْ
##👏
##͡
##文
##̯
##ɾ
##￼
##手
##だ
##る
##ẻ
##家
##村
##ै
##ġ
##合
##ʒ
##ے
##🇾
##本
##軍
##😅
##立
##ガ
##上
##ژ
##🖤
##🇫
##🤔
##ỳ
##ἰ
##さ
##お
##ब
##ई
##ハ
##☺
##վ
##հ
##ọ
##մ
##四
##高
##😭
##ở
##พ
##ล
##ห
##💯
##井
##🏳
##🌹
##ẫ
##ʾ
##二
##ự
##▫
##ψ
##モ
##उ
##👊
##は
##ҳ
##ி
##த
##ỡ
##🎗
##🙂
##≈
##ẽ
##正
##ſ
##真
##美
##ờ
##♭
##ữ
##⬇
##ỗ
##գ
##भ
##小
##ἀ
##ῶ
##😱
##🇭
##𝕟
##ர
##བ
##艦
##😆
##✊
##🤩
##✅
##£
##ừ
##आ
##ি
##自
##ỉ
##⚪
##📊
##宮
##∙
##٠
##ว
##─
##ㅤ
##≡
##≥
##🥰
##⚡
##✔
##➡
##💃
##¾
##이
##∈
##ũ
##ส
##١
##↑
##📷
##대
##ṛ
##ན
##ப
##¼
##★
##ủ
##🦁
##💥
##♦
##ƒ
##̶
##ẵ
##į
##🐍
##►
##❌
##李
##ĩ
##ẩ
##¥
##↔
##武
##̓
##▪
##🇽
##第
##∞
##រ
##🔹
##ỹ
##բ
##≤
##█
##ỷ
##ễ
##ད
##😀
##⁄
##➖
##♡
##📹
##✖
##٢
##←
##ἐ
##ֆ
##▂
##¦
##⇒
##ẳ
##⚊
##✒
##ᅠ
##st
##ov
##en
##ch
po
##ní
##ra
##ro
##la
##ou
##le
23
##te
na
##li
se
ne
je
237
##in
##ce
##ho
##ak
##sk
do
##em
##an
př
##al
pro
##at
##on
st
##or
22
##ed
225
##it
za
##er
##ně
to
##ci
##il
##de
##53
##ku
##rá
##ni
##no
28
ro
283
by
vy
##ar
##ti
##lo
##ad
##to
##el
##po
##ka
##je
13
##ky
##jí
34
kte
345
##et
##ení
##ých
##od
##na
pod
ob
ch
že
233
##ck
od
##es
38
##mi
##ší
382
pr
##va
26
##né
##ru
##av
##lu
tak
js
##id
##ez
##ek
##ist
##mu
269
##dy
##ob
sv
##cí
##ří
253
ve
ko
zá
##ent
##ová
##lá
kter
##ře
jak
ná
##ské
##sti
353
##me
##ko
mo
##tě
##as
##mě
##rav
##ná
##by
ale
##is
si
bu
in
ně
##ál
##ové
##ět
vý
##mo
##vo
jed
mě
##tu
roz
re
při
před
nej
##du
pří
te
ho
##ji
mi
##da
##ze
##nu
mu
##dě
##ví
36
##vá
##ova
##že
##ri
367
ka
##re
##ým
kon
sp
##ovat
##uje
sou
##ly
co
##át
##bo
##up
##tel
spo
##ím
##ny
le
##nou
##ta
ni
##ních
##di
##ma
ji
##ne
20
ma
##vě
vš
##ři
##ká
##bu
##led
##ého
##kon
##tí
##lí
##vní
jako
kdy
če
##do
##nost
poli
de
##ali
##lad
vo
pra
##ick
##pad
##oval
##hod
##ty
##ém
##ný
##prav
##oru
podle
mí
##čí
##am
min
##ran
##ním
##stav
##ve
##lov
jsou
##ba
##dá
##mí
má
##stup
th
vz
##ště
##sta
##ry
pos
lid
##zi
##rov
##ční
##lou
19
jen
an
##ter
##ste
byl
už
##vy
jsem
##vr
nebo
dal
bude
jeho
di
které
##pu
tu
ze
##pe
ru
##sa
##ků
vel
##ží
##má
##se
pře
##sto
li
jsme
který
ví
##si
##kou
##nosti
##ád
##hu
##lav
vě
##ilo
os
bo
bez
##ut
en
pa
aby
prá
zem
##ský
##ec
let
pot
nov
##kov
16
##jší
##men
sa
také
##sí
##my
cel
##bě
##za
##mp
##vi
nap
##ování
##jící
##ního
##sp
hod
##len
no
ak
vše
proto
zp
the
##cho
bud
op
##řed
##řej
##lem
další
##ved
##raz
##tá
##ovan
mez
##vod
##ského
##ina
##klad
ku
##00
zde
politi
##ir
zd
201
##ných
roce
poz
tr
bý
##ální
##ie
jin
ten
##alo
ev
##itu
stra
##lat
ří
spole
##ing
moh
byla
pou
##žit
##ská
##bí
##še
vá
##jem
##zí
když
tě
ty
##un
lo
la
sy
bylo
ce
##ud
##či
až
##kem
roku
vla
##ům
160
##ena
##rát
##sku
jedno
##bi
##ruh
##zna
so
au
##rop
ex
##ských
##iny
dě
která
mili
##ži
sk
##for
##ot
##kt
##kra
##pr
##sko
##dí
pak
sta
##ené
##ství
ta
##ově
##hy
##koli
##val
##hra
##ha
##ovo
minist
pů
##chá
poku
par
##ment
nep
chce
tom
##rou
##gra
##ati
té
##ená
##vět
##so
25
##cké
dů
##lan
##ct
mů
ani
dob
hra
mezi
druh
prost
##nes
##ovi
ov
##ými
##stat
##nik
společ
první
my
mar
ar
nás
kde
hla
##če
něk
##tek
##ani
než
ži
ba
čt
jste
##bli
##jich
jejich
sto
ste
##jte
vlá
kra
##ují
##stí
stá
uved
br
evrop
al
##ver
##ného
toho
sku
##co
přes
##nit
rad
není
budou
##mer
##oup
ved
proti
stát
prav
řek
##chod
##rů
být
##and
rozhod
##ska
##lé
##ga
koru
##iná
##mé
něj
of
vi
##rod
mož
ti
##let
ja
##sob
##eno
##čas
##dr
však
##ana
200
##ber
všech
či
ještě
dí
tím
da
zat
nad
##há
des
mno
##cích
stav
zv
##gist
##sed
##ši
##zení
ed
korun
##zu
zač
##cent
své
prez
pokud
##čně
dost
va
##tem
nez
může
##ss
##ev
čá
sm
250
or
me
fo
##gi
kr
ry
du
##ident
##nice
##ovala
kar
##tech
komu
vlast
eu
##bor
vět
pat
bě
čer
dá
dv
tra
##ily
##pl
su
prob
tam
polici
##inu
případ
it
##liv
##pa
fir
##nout
##nější
##su
infor
##im
tomu
prac
slu
##ců
##šení
prů
velk
její
tý
dva
stej
kteří
tele
##emi
##stě
##itel
##vat
##zy
##sl
##luv
##eny
##edy
##ček
##ření
##fi
##man
##skou
##gu
fin
##ového
##cky
více
##ovali
ny
##ovou
##cha
ke
##tiv
pl
##ových
lé
již
tedy
##zd
##spě
##ině
svět
vol
kv
##hla
##sky
##hem
samo
spolu
on
vod
amer
##hled
##chy
##eme
el
for
sil
chcete
ře
##ory
##ám
proje
nemo
posled
##jen
kaž
prezident
##om
##hl
##gistru
protože
podob
sob
##ším
and
##ový
řekl
osob
zare
ci
tis
pá
##ard
##vu
zna
##čních
pop
velmi
odp
##zem
##gistrujte
##čit
ps
##kr
##ným
##mů
##ady
musí
##ul
několi
tře
foto
auto
dem
živo
##zen
nich
##čet
##spo
##aly
##ické
asi
napří
##ite
18
##lit
##ge
##rat
české
##stá
##stu
sch
##del
zaregistrujte
pla
##op
##ast
##kla
měl
procent
pov
##ace
rod
ur
uni
dlou
##ili
##onu
##lep
jí
hu
kro
nic
##chu
fun
například
##hrá
##cen
ško
slov
##be
den
fran
ní
neby
probl
tři
zastup
##čení
lidí
cí
##hle
##žení
##nil
##iti
zn
chy
mají
nes
35
##publi
pomo
dnes
vys
lu
zí
byly
každ
mus
nech
##ort
mal
##ue
ra
##žen
##log
10
nepo
org
republi
mluv
syst
##stoup
##rob
##jed
uvedl
pe
kont
##ané
##min
##lik
situ
vů
15
##řad
informa
##hlá
32
nedo
hlav
finan
obje
toti
star
soci
##án
##kaz
##nutí
##ští
ky
podp
tento
nik
##čka
cen
skup
as
tvr
##um
vyš
pi
soud
fil
ag
##oni
tisí
střed
leto
čas
dne
představ
##tr
##děl
čty
žád
zahra
inter
zatím
pan
##chni
at
pet
čí
hrá
třeba
letech
##roj
##měst
##vé
zákon
##vají
##ková
red
man
místo
sna
##dob
konce
##dal
##ence
##ori
změ
pouze
##měr
##ském
veřej
##rom
bar
zdrav
##vis
ha
##tní
##jde
sí
be
##ůli
##nění
##vatel
##sty
con
##zor
kvůli
##cký
##sá
problém
jeden
12
neu
něme
##pi
minister
vr
součas
rych
úč
##řet
zve
tre
vid
is
##den
##ležit
rov
krá
ln
jan
já
##álně
jo
kli
hodno
her
268
dokon
##řel
lidé
ele
##ity
##nám
##us
##ném
vyu
##mov
##rt
##ej
sn
jim
mít
##ca
ost
člen
##zv
##nání
kraj
záp
rů
##les
vyso
##chop
dop
cz
##nici
obla
##bra
zak
##rac
sed
progra
jde
milion
##bou
což
##nika
právě
##žel
##ato
ek
zveřej
nebu
kdo
vyp
nějak
nabí
ote
##ila
##ník
ods
kterou
hor
##ur
stan
##mín
##ké
ri
met
##vali
chtě
##ůsob
##ností
kla
ban
##měř
##tele
větš
potře
země
##čil
##víc
ver
dvou
##met
několik
us
rok
mimo
##zn
svě
plá
mlad
##sled
cent
zap
červ
nev
328
##čan
11
hlavní
tur
17
##ala
##teč
ministerst
dvě
mé
##ách
##tn
totiž
oprav
nyní
##ene
ode
někter
##rie
ad
vyt
klu
mohou
prostřed
pu
kan
##rost
##ckého
spe
##losti
hlas
##enci
dr
mod
##ros
##dou
postup
redak
199
##káz
##jist
##ckých
82
premi
##peč
##ér
doprav
##roz
##fer
##jeme
provo
řad
##níků
pí
##stru
kole
prof
míst
led
list
##aci
nové
##chází
pen
un
nám
tisíc
měsí
##ón
##inou
##kové
dis
obchod
ter
oby
zab
zápas
čtvr
organi
demo
es
per
strany
##šem
předsed
této
svými
##zku
##mat
we
##ron
nevy
nejs
během
sr
jednot
policie
##ovu
##sle
době
rek
byli
##šť
šp
oko
úprav
těch
rá
říká
část
ekon
bod
##rán
14
prv
up
##dek
var
uz
##čky
##sad
postav
##ig
způsob
úto
##kce
aut
##slu
##hr
měla
##ol
zda
##řejmě
vide
##omi
ano
všechny
##race
politik
##ráv
nemoc
##vání
jej
ča
kolem
něm
brit
čtená
hist
nav
##mou
##nan
plat
navíc
teď
pad
##ktu
##os
teh
še
kou
med
ot
##lil
er
tro
##ctví
připrav
##ždy
##řád
minu
města
##ag
##stli
zahrani
##ech
##bní
národ
##zace
##tor
##znam
##dní
##ským
ap
##cká
babi
##anou
ser
mat
##sy
##lení
polo
ab
res
komp
svou
##ěk
zku
30
kap
##hov
americk
##ár
elekt
##žil
odbor
24
##něte
##chom
inve
třet
společnosti
##ený
om
měli
##šel
rak
mluvčí
původ
boj
návr
##letí
přek
dota
##ond
##řit
zh
##cela
čtenář
ga
##obil
##ost
zdravot
##ovní
demokra
usa
ostat
připo
jas
##aně
##pí
komunik
##ději
něco
bych
stále
řed
televi
ju
základ
##eni
klad
##ání
##iteli
dom
prý
et
af
tv
##kod
takže
##sil
##ující
dra
odpově
psali
muž
##cie
jedn
případě
vl
pož
vždy
ekonomi
##nut
nemá
fak
21
##obod
##eň
##kách
komunikovat
náv
zů
stu
voj
que
##gy
##voj
největ
dalších
čin
##tom
ministr
dál
##ia
občan
##tion
##hou
##tů
##entu
##ata
vál
ukra
získ
##opak
pri
sně
moc
trest
spolup
##pozi
lí
##sah
otev
##kl
díky
##tra
hav
##lní
vyj
##dil
##řil
čss
##ému
##ckou
##čá
##gale
poslední
pav
speci
předev
och
násled
##átor
nakon
##ned
##bec
především
přit
udě
zaměst
fotogale
##átku
zastupiteli
sez
exp
nakonec
nor
27
práce
dokonce
býval
##ld
podí
##stra
##bav
##ony
##sté
##rii
redakčních
tady
zveřejněte
##ovalo
stejně
##sal
vznik
##ič
##šit
skon
čtyři
tří
důvod
kor
##vyš
čssd
zej
##ten
samoz
##šlo
##dech
telef
měst
fa
del
##lin
tru
##son
dobr
##klá
intern
nejen
oh
fi
jist
he
dět
svobod
##cem
kri
kni
##teri
otá
pět
spoj
##obraz
kul
úřad
##ane
##ine
##ruba
oz
člov
dn
bi
veli
těž
##ant
sice
praž
čr
##ůj
ves
##gen
##des
lze
svého
vlády
##žně
slo
##her
##éf
dodal
pě
ber
men
##andid
##té
##roveň
poté
uli
000
určit
dos
zhruba
##kti
##ované
kom
ge
obdob
letos
posla
pokra
stud
pol
der
zobraz
##kání
kontro
prov
##lez
vlastní
vůbec
působ
ozna
##liš
bezpeč
##zovat
vysvět
růz
##py
jiné
##vid
mas
úspě
každý
potvr
později
set
##ména
por
šéf
pova
jestli
##res
##hat
služ
vítě
sc
neza
produ
praze
poč
##ceti
##ke
petr
mil
hr
tým
naopak
hy
##plo
soutě
##bal
##ňuje
jiří
vedení
pode
##zemí
##20
regi
přitom
dobře
nejlep
nebude
milionů
nemě
##tky
studi
systém
##che
uzav
domá
chod
umě
sloven
mart
největší
vole
tohoto
zprá
naše
##nictví
svých
##padu
prode
##nila
has
##ton
##řá
kandid
##št
mon
kdyby
vzta
##ovaly
##poč
výsled
tyto
prohlá
druhé
##vý
život
##go
slav
státní
smlou
dří
části
##ovy
kromě
vláda
ope
em
##ely
##álních
##lost
##krát
##nic
možné
##řilo
obyvatel
mohl
hodin
##jít
oblasti
děti
jedin
##čen
##nými
nu
##áz
parla
##cit
nen
pros
##věd
##van
ukraj
velké
svůj
stup
informace
##kovi
firmy
proč
nem
##mysl
polov
##teg
zemí
často
##kci
česko
úda
schop
sled
zeman
tato
podporu
snad
##ovatel
##jn
roky
ut
objev
sen
ovšem
patří
##oví
výro
zcela
zají
##koliv
dopl
odmí
cho
pam
zvlá
##čku
tehdy
##zo
vých
společnost
##ler
##cení
kultu
##ted
situace
internet
##ován
vás
květ
##lek
zt
parlament
##eta
téměř
máme
aktiv
použí
tomto
techni
357
opravdu
jedna
nikdy
zástup
hodně
fot
neb
oka
loni
sebe
##hlí
poslan
##jet
##čer
podpo
ředitel
##cím
vytvo
##ráž
upo
odh
důležit
para
bohu
komi
##dala
##tečně
zároveň
sl
město
zvý
##řez
pení
mysl
nabíd
spí
bran
##cháze
##cou
ok
##art
rám
znamen
žá
moder
##nem
pokrač
počí
##níci
kilo
větší
nut
##kro
sever
198
peníze
##cet
muse
sport
týd
##vad
##stal
cest
století
vám
##řen
vyz
##ps
výraz
##zuje
that
nejsou
závod
##chi
die
fe
hospo
zby
los
##šek
id
víc
zi
plo
upozor
##stech
ly
tuto
program
##lán
##ovém
zase
##pis
##nat
pohy
zná
##děli
##rní
dosta
gó
republiky
vítěz
babiš
výkon
pravi
zemi
##ord
##hi
##sla
##ft
přesto
pořád
mist
samozřejmě
zejména
am
evropské
nato
projekt
##ince
tou
situaci
spojen
##rist
ústav
posky
zra
doku
kriti
půl
exist
místě
vši
##dat
opat
##méně
jednání
léka
##čního
##ývá
minul
mnoho
##dit
obě
návště
##řízení
možná
hlavně
##ický
jednou
všichni
autor
kal
uvedla
proce
video
##zra
##ito
il
gen
##inci
jinak
lep
žen
toto
##cion
vypad
rámci
nikdo
##graf
podmín
univer
##lika
bra
souvis
doby
esk
blí
úpl
dy
chví
oba
hned
přij
san
deset
##šní
pon
opět
sám
poda
ned
50
naši
##prve
##ovým
zlo
tech
považ
les
využí
film
znovu
dub
omez
##ation
profes
zastupitel
titu
osm
euro
pom
ech
dobu
škod
ener
šest
##dání
len
vra
##žší
agentu
začí
celé
##slov
dále
##mus
otáz
##pon
##jících
##fa
obec
##ledu
ven
##lech
##ější
##četně
##álu
##štění
val
území
dav
sedm
##xi
západ
zu
##hledem
umí
##šen
světa
sty
new
jednotliv
ca
sněmov
gra
##drž
stal
##čné
včetně
vstup
##we
##der
##ických
##řes
sociální
miliar
sko
sní
reali
##teli
poslane
jednoho
zel
##uj
##én
zapo
lety
zalo
ček
provoz
##gh
kolik
##lal
lin
prezidenta
##ral
svo
umo
##sek
tla
státu
listo
vyh
##čů
top
svým
##koho
počet
##aná
břez
##cti
vnit
##eti
slou
trump
východ
##ary
vyšet
##pě
sam
třetí
##ovky
tradi
##ává
##luje
pora
celkem
zach
autom
těchto
akce
kč
kam
údaj
##kli
fung
##ici
tran
navr
ang
dovo
obra
některé
médi
##fek
význam
##lání
##tit
tvo
praha
komuni
police
součá
koup
trochu
věci
období
nový
pal
nejlepší
několika
##stů
nab
vojen
liber
škol
indi
soudu
##rem
popr
armá
maji
##šet
potřeb
##kal
zaměstnan
##mav
mám
účast
zvo
##nov
rodi
are
pozor
##ita
nejvyš
rozhodnutí
##ik
závě
česká
repr
##vala
dlouho
ministerstvo
##ger
tex
řízení
##zaci
##kami
staro
dodá
100
##hlas
##inárod
##čem
práci
skuteč
histor
nemů
mezinárod
##kům
##řů
##oun
bal
##pust
aktu
francou
morav
nost
##boru
##něž
was
předseda
sva
zájem
stro
##xu
vác
194
##end
##lon
##jní
##vky
##tivní
kvali
telefon
lidi
dostal
firma
martin
náro
pár
čtvrt
sh
##roslav
voz
budeme
přímo
stat
bychom
lá
##lů
krát
##rava
mohli
##dila
svém
##ari
koali
zru
##čila
mělo
rychle
##běh
##war
manžel
##lý
český
nová
gu
##ada
řid
září
stojí
kilomet
trené
možnost
konkr
návrh
##hn
cenu
myslím
poh
##ja
##tře
pracov
nebyl
všechno
##pt
pre
ej
prvn
##ith
##ff
pomoc
sla
##lar
##kur
mobil
popu
##kyně
budouc
com
bru
celý
výrob
nedá
dan
skupiny
ac
podstat
##ese
##ovací
bezpečnost
mys
pozi
milo
dat
investi
##olog
bí
##hor
sprá
jednodu
##11
poji
str
odvo
nejvyšší
zam
úplně
196
poš
univerz
člověk
rez
dou
mis
listopadu
stani
rep
##tner
řešení
##byt
gener
##dce
##hodu
špat
premiér
nejd
dříve
##ovaný
##lie
posledních
##kat
spoluprá
##cko
někdo
zkou
server
zjist
cestu
kat
takové
povin
352
správ
chvíli
pok
francouz
##ška
##zní
##idla
sup
podnika
inform
40
rovněž
ameri
##řské
jmen
##znamen
zákona
čtyř
znám
výstav
obv
tri
poskyt
techno
prahy
##rně
nimi
ben
prod
##kali
pís
smr
šan
srp
ceny
##šla
ochra
voleb
rozdí
vyjád
prostě
přev
plán
rus
celou
gene
##rak
##bách
##čním
hled
prostor
cy
dokument
konci
fr
jaké
hru
stí
příliš
##hodob
##žeme
##ok
hry
poprvé
maj
##hledu
##álního
dlouhodob
noviná
##vně
prakti
##zá
##zeň
tvrdí
im
opera
##stitu
##jení
prostředí
zm
##ster
okam
##enta
rn
vliv
vedle
novin
##lace
##ion
prote
požad
ště
##šil
197
stave
##hli
podni
jedná
tomá
vyšetř
minut
##zer
obraz
procenta
hnutí
tem
go
nemocnice
las
##cház
žádné
##elu
miliardy
##br
pěti
přid
dlu
##th
cha
##vil
nebylo
kone
psy
resp
##zni
##ben
ukáz
voli
zastav
##stv
dopad
partner
uvá
jmé
##cku
příští
trhu
##fin
##klady
##nal
##land
##bá
##podob
dce
vystoup
českých
##ována
národní
##bili
wil
##ore
doma
sobot
jose
histori
hude
##šeno
um
miliard
materi
##inále
region
divad
koment
odmít
00
##vyk
##ická
mohla
##wa
zách
reprez
##hnout
##važ
##enti
zatímco
dosud
##lava
prvním
uje
##ple
publi
konkré
roli
kol
konkur
##rání
někte
peně
ním
oček
andre
součástí
hro
##éra
cena
divá
kau
##ede
jednu
základní
stří
zobrazit
zne
##ického
##letý
právní
rozhov
##mit
kur
desí
##chyb
bav
max
##oucí
ofici
##žní
povo
##bur
##čin
##ickou
zb
některých
problémy
##qu
opak
týden
ministerstva
##hrál
jiho
ply
světě
##ký
##nému
pavel
unie
##spoň
kry
lepší
09
##ung
řekla
česku
říj
paci
rakou
##ovaných
záj
jich
akci
##cu
193
pravidel
dvo
začátku
##aj
pas
domácí
fotogalerie
##lín
##šky
put
dlouh
blíz
rád
##skem
neví
zákaz
fotogalerii
##šli
est
měly
##ven
stavu
samot
##pro
poru
##leko
zví
mnohem
většina
km
loň
služby
evropy
exper
zdroj
ide
nebez
sd
deseti
##bit
model
60
post
##cel
zásad
##álním
zmí
vrát
pořad
##vající
##tila
##osti
smě
sebou
pres
vyšší
##otu
spou
začal
zařízení
dotaz
##pozici
byd
##sc
vlastně
kraje
medi
ši
moci
cu
strán
lov
##vn
organizace
zbra
snaží
tá
odpo
##gan
hroz
turist
kva
##vili
hle
přístup
tzv
##jezd
##žila
##šti
stran
pohyb
##ts
méně
došlo
##žití
zahá
chtěl
programu
##ii
##ždě
druhou
lit
stře
##děpodob
ori
abso
##logi
přesvěd
##chal
jehož
##sloven
2014
##dělá
kup
finanční
jenom
##zdu
##ujeme
určitě
car
##žili
zřejmě
straně
strana
skutečně
##sahu
ší
centru
velký
angli
nového
tero
kamp
##oby
##nul
náz
##roni
komise
cit
##any
##stva
##mpi
ať
##lož
inf
sami
zahraničí
iv
zav
opatření
zákla
leg
současné
##hů
následně
271
tisk
napo
obsah
##ner
nezá
zajímav
naší
##tes
napro
##dají
##telé
výbě
pracovní
##nili
motor
klub
jež
##dejší
dítě
metrů
rozpoč
##něn
vojá
přis
dru
##átky
jem
můžete
##fika
potom
##cy
velkou
##onstru
jenže
2016
udá
##dali
imp
##ckým
olo
sho
##emo
sli
systému
jana
29
##mají
ledna
ští
republice
tn
mana
david
##kovou
blo
klubu
školy
profil
nena
olomou
nel
dola
doporu
2015
předpo
##řila
podařilo
spor
##ckém
festi
##tické
hud
##he
pomoci
stranu
##ian
ture
symp
##ativní
##žství
##aný
celá
kost
kterým
spíše
##ními
obou
syn
with
##prch
týmu
českého
někdy
##kup
dětí
oly
běž
hospodá
uj
##mon
vzpo
nepři
nemu
##pově
##per
##entů
podpor
pravděpodob
úspěš
##leg
prodej
minulosti
insp
věří
skupina
scé
##hody
utkání
2011
2017
fotograf
českosloven
teplo
##sch
rizi
uprch
##nuje
##kám
reži
příprav
nicméně
zkušeno
typ
##ených
stě
rodin
seri
rady
zas
##dělí
obrov
ohro
neo
rozdíl
##ením
##mír
jedné
svat
ministra
kab
minim
##vek
kov
##alu
domu
mohlo
##lám
srov
##bil
##ety
hrad
roční
ivo
han
##ker
##kají
31
ast
##žeb
vody
čím
dostat
projektu
hej
vzhledem
sobě
platí
války
##cka
zakáz
##ováním
##níky
##telem
kterých
tw
níž
probí
##aru
lidem
##ters
##til
##rozen
nepří
##gr
pé
zprav
námě
ukon
věc
##ción
střel
soupe
tan
proved
informací
překva
festival
vybav
mer
lan
druhý
prohlásil
automobil
zaji
reak
2018
evropě
popis
##kových
8211
##ích
##měrně
lou
##nie
##uji
názor
hlu
spoluprac
##aných
invest
ženy
##ble
místa
##bn
vladi
vyhlá
2013
odhad
##lové
volbách
volby
zdů
##str
##jedná
vaj
##ado
##iden
##chů
##lada
ostrav
nemůže
reprezent
městě
##vědo
##cům
##tora
##chodu
##ktor
života
mnoha
lod
znamená
##mos
##ekt
disku
okr
základě
80
klí
##kově
izra
pob
##kazuje
90
podez
##úč
olympi
obce
někteří
jedním
##dět
proces
##desát
##22
politiky
##více
místní
kari
filmu
pozem
##řili
směr
milionu
množství
kraji
společně
komunika
sem
získal
musíme
způsobem
vzd
oper
kvalit
nechtě
##tně
nejvíce
kterého
##skými
pohled
##ks
večer
tř
##před
##bud
##vol
fotbal
kre
##hodno
postupně
sestav
stala
mode
zen
nejv
chtějí
nachází
abychom
##50
##rk
bou
leh
sprav
televize
získá
zajist
rozší
daň
##tili
##pla
archi
243
##kty
##myslu
reag
##sen
fanou
hlavn
vat
musel
##ránit
##telů
eba
rusko
kateg
úter
##bat
##dra
institu
oznám
vzá
2012
##tou
fon
hovo
výji
václav
odpovědi
##ovaná
##tuje
far
hol
bla
##íme
##razil
přin
vysok
und
##car
funkci
##roje
napsal
chla
##zích
dubna
želez
##cii
anti
##sia
##čili
##ban
##tera
dosá
##koj
věn
zpo
##čuje
tomáš
nových
nebyla
2010
zmi
novou
jazy
vidě
kontak
##ák
zaved
##ris
výsledky
plzeň
dělat
##kol
##ino
okol
výbor
politické
muze
##enty
vlád
brat
většinou
##gie
rekonstru
člán
2019
sti
##ův
japon
##ětí
kandidát
##éru
ada
aplika
70
průbě
umož
cílem
##ere
##kládá
micha
výrazně
##zdy
nosti
policisté
ztrá
ham
stand
hvě
zlep
klas
##ovány
budu
##děla
500
lete
podobně
ulici
právo
super
práv
okolí
čín
##slav
napad
potrav
května
peněz
##tal
úřadu
una
pondělí
##vno
hrát
##dělení
náměst
žena
poho
středu
dispozici
maxim
##adva
##ph
výzku
##mem
titul
bohužel
##tov
chceme
##tv
jiných
vůči
##dili
bor
uk
náměstí
následu
idnes
##fe
lev
data
práva
nou
##ader
nějaké
vrcho
##čný
ir
vyvo
síd
ekl
souvislosti
pev
mnoh
stalo
března
##ledne
fy
##rech
bodů
myslí
přá
přesně
pomá
dny
naj
rozp
##wi
obvině
zbo
různých
dod
financí
pátek
pozna
dobré
##teř
zpě
spotře
##lád
čeká
##mně
řada
ovliv
há
nechce
dolarů
##jak
##stoupil
alespoň
firem
nichž
##vit
málo
čist
##lila
příslu
najde
qu
tolik
adr
sobotu
##sh
hodnotit
zpět
##ály
kří
mistrov
rodiny
konf
dé
takzv
bývalý
taky
nelze
světové
králov
teprve
sý
autobu
##ng
mezinárodní
června
příj
##adí
char
dalším
doká
španě
stejn
žal
přist
##rych
nadá
sama
slova
ostatní
jejím
vyb
##nd
van
např
sympati
takový
vrá
##gran
žádný
sput
ks
##hlé
##chov
můžeme
karlov
menší
##stan
majet
velká
jenž
##ona
sym
policejní
konfer
sé
##mar
začala
nevě
test
har
vhod
ein
##telné
října
funkce
čís
kola
franti
##gin
tvrd
##ováno
zni
zprac
podzi
tor
hrd
přem
pomocí
resta
vn
kilometrů
soused
kapit
##cemi
výsle
##zně
##one
uv
##luví
##žal
opozi
prim
všem
trenér
ali
člově
kalou
##nek
skvě
původně
##roti
věcí
vyd
ital
##celá
těm
prosince
služeb
##ůr
##tím
win
##ise
úno
ete
srpna
kři
času
muset
vítězství
jezd
zeměděl
smlouvy
##enou
##hrad
rozhodně
dře
lond
##sit
josef
poj
úrov
spolupráci
návštěvní
úřed
odsou
pardu
vydá
klaus
vidět
##žené
letoš
uži
##skému
zad
##cov
vlastn
počíta
dvěma
nově
posí
8220
##stává
##ář
bá
hejt
letad
bre
##etu
sub
řadu
##ista
původní
pát
ostrov
##stala
dodává
sig
diplo
vede
neda
důležité
refor
demon
pochop
příspě
##berg
zpráva
státy
britá
zo
das
##děj
##edl
centra
mosk
leti
lat
##ell
předcho
údajně
naprosto
položit
drá
posu
##volu
poslanec
##náct
##endu
##ju
##šlen
ocen
gro
rozhodl
průzku
sputnik
##účast
jasné
##vatele
##kej
poro
jakou
##nů
prová
mlá
hodiny
##kový
trh
##ign
hou
##míná
přišel
posti
efek
uvádí
parlamentu
reu
očeká
španěl
##předsed
##něné
přibli
kterém
provozu
velice
##ws
kos
##han
starší
místopředsed
turna
kl
bro
klid
nezávis
nejprve
##vka
##nách
dopravy
##hing
rela
spl
auta
##sala
daleko
war
neod
douf
##hal
restau
nastav
seve
šlo
##lv
##šku
##ong
zdůraz
kop
##ít
tohle
sním
emi
takto
sly
face
neob
petra
##chen
dov
stroj
taj
fakt
##vou
ml
podot
vyv
potřeba
stanov
máte
2008
dnech
takov
##kázal
zůst
řád
podrob
eli
vyrov
##bul
ministry
##řa
2009
hlad
konstat
důsled
##vaz
mor
##raci
videa
alkoho
##lec
téma
sdru
spr
##stava
john
##zala
formu
##střed
##all
rež
##mot
300
rádi
tep
nemají
dvoj
úterý
##og
michal
##žné
štítky
##nech
##sem
sociálních
americké
karel
##žený
smrti
norm
##sně
soutěže
##pp
bohat
##vku
dek
##ňují
##minist
jednoduch
hlavním
ran
domů
nejde
kolo
pohá
edstav
defin
sympatizovat
##komu
střední
naz
195
tvoří
gól
demokracie
here
nesou
vylou
ukrajin
žid
obvyk
dle
eur
##lob
museli
disk
net
ač
poziti
fu
##stoj
##smu
gi
dohod
##ren
středo
hraje
##iči
vyst
musíte
vzdu
nemusí
rekla
py
wor
ii
fakul
45
##lti
stru
##ice
útoční
žádo
hokej
plan
působí
##nické
července
poznamen
uči
##fu
##niční
skoro
příležit
jméno
řidič
putin
##gar
nabízí
moment
terorist
##chem
##niku
ciz
##valo
internetu
jiného
kancelá
hrozí
ksč
kru
##kova
průměr
body
muže
##rip
přiz
##mb
změny
získat
dostane
vývoj
zaj
chyb
miroslav
našich
roman
států
podobn
podmínky
usku
web
zaznamen
budete
mrt
##žuje
##ile
hranice
##pos
agentury
účin
##pou
##vila
##inách
čtvrtek
uprchlí
vypl
funk
##ski
osobně
mistrovství
banky
##hání
dro
projev
dení
av
##atu
klíč
##rali
dve
obrany
##stvo
oproti
níz
malé
byt
výši
##nami
reuters
náklad
odpoví
##ria
eb
##isti
##plat
stanice
muži
chu
verze
person
dnešní
sdě
jiný
trá
##avy
souk
pocit
technolog
nadále
přísluš
rob
zástupce
##boj
##nějších
rozpo
dělá
maď
refer
sov
majitel
##nictvím
rat
koncem
bit
dostala
analy
play
##cher
jaroslav
koncer
##lej
##nilo
##par
pracovat
ond
svoji
uprav
plu
jaký
typu
##hne
##itele
spar
von
poch
dům
dar
twit
##ket
vztah
prostoru
dodala
nepro
tal
poměrně
not
kle
círk
osmi
prohlášení
sle
ud
spis
samostat
dostup
nebudou
krimin
měsíců
##rona
podzim
zlat
##kosti
neděli
posledn
poško
prodá
##čilo
hel
33
bel
stoup
alex
poplat
##lali
udělat
oblast
##wn
nek
sal
trén
soukrom
sportov
obžal
věku
mak
transp
ejm
##ča
odv
lékař
mit
##átní
švé
hlá
brzy
svěd
##lých
washing
odst
sledu
nutné
neg
##ýš
vysoké
křes
února
důvě
propa
sená
##ingu
podnik
2006
symbo
okolo
##vál
air
zastá
extr
##sů
společen
facebo
klá
vybra
zpravod
prakticky
ara
##teční
##itě
vaz
8222
schů
financ
meto
rozpočtu
##cházejí
bet
dopravní
zahr
náš
krize
komb
rem
šesti
neměl
##řené
řešit
##vám
čem
##deme
##mana
##orů
asist
osobní
hospodář
vedoucí
vězení
leží
půj
mohly
serveru
organiz
doz
prostřednictvím
náklady
vládní
##iv
nečas
nevid
dostali
##con
##sion
ká
##mech
starosta
argu
ane
důchod
##bek
islám
izrael
noci
##our
##měru
elektroni
gran
##blí
píše
neboť
bur
##hoda
umístě
zúčast
přece
vysvětluje
říct
zji
vytvá
českou
2000
standard
##rok
##šila
konstru
zk
najdete
##tern
zaměř
ph
kamen
finále
starost
##stické
průběhu
příjem
musli
##tt
vývo
##nácti
švéd
2007
výsledek
zám
zvolen
nesmí
chtěli
zdravotní
drob
kapa
afri
paní
pozici
získa
spíš
oblí
vysí
sněmovny
přijde
##ovanou
##kud
ila
disple
radě
fre
##grafi
hři
tehdejší
##razi
mimořád
vym
šanci
ruské
zdá
občanů
charak
nyn
##čkou
hledi
čele
revolu
podnikatel
##řady
cesta
##níka
##kala
vládě
##adu
##pat
řadě
##éry
wa
##lest
##oně
tun
abych
dvacet
##lel
##bert
lépe
##lala
výz
##ktivní
veřejné
##ür
rozvoj
vyrá
maďar
úvod
pln
seznam
polovině
politici
škoda
váno
##kan
edi
byste
##ovaného
záchra
akad
výboru
sbí
nest
jít
##skup
zelen
vnitra
sel
##ers
191
potřebu
##lili
princi
veš
vyž
nechá
cesty
paří
jader
speciali
##zel
dvak
špi
zemřel
oni
##zdí
most
celo
historii
##óny
2004
roze
směrem
spol
předmě
##řem
přibližně
domin
jednom
mluví
##rek
zvu
dlouhodobě
##rol
##rostřed
zden
požadav
can
obvykle
fili
pana
různé
##rovna
sedmi
koalice
ša
platit
bl
napl
regu
zástupci
okamžit
fond
režis
##jích
zahraniční
veřejnosti
dospě
nijak
ráno
sá
zpravodaj
rozhovoru
##ilí
bezpe
##mina
žije
brno
##saz
uspo
překvap
jižní
chrá
zvyš
adres
desítky
dní
počtu
sklad
doh
##zací
2005
náhra
premiéra
vydání
dist
##tiva
chci
nižší
hlí
měsíce
primá
osla
londý
pravda
400
sexu
atmos
##jícím
zapla
absolv
##šně
pražské
zranění
##ropo
##drže
doda
profesion
nástup
začíná
výběr
brus
pově
média
vystav
trans
okres
ww
##adi
sni
##rovol
##ickým
form
##ění
potvrdil
mladí
##ampi
jistě
kama
##ase
coun
nějaký
atmosf
stejné
povr
aso
ram
hal
##gres
olympij
deta
##toři
rost
staveb
##rovi
##znal
##arma
##hlíd
##zev
rukou
##řít
##cal
agentura
37
##pustil
němž
tímto
bil
současnosti
yor
opti
from
odpověd
itá
slib
troj
vzdělá
energe
##řka
##islav
dovolen
port
##vok
pracuje
##čná
##pod
##ňovat
poslanci
dot
##sd
seni
vním
tvor
švý
vybud
politiků
##nict
zvlád
vyhrá
2020
senátor
cvi
##tat
pek
shod
##ub
##pá
##jit
##ang
pohledu
vis
381
##jev
evropských
mand
člověka
##cia
krok
##ces
host
##čeno
ksčm
přestože
www
##hlo
záležit
pravděpodobně
podobné
varian
památ
sobotka
##git
##oná
silnice
voda
##lor
vík
magist
##zal
bul
sovět
zprávy
##elí
##spí
fer
cht
rusku
věd
krátce
##jedno
děj
kamará
##valy
hon
plánu
státního
problem
##edi
tisíce
jednotlivých
krás
kod
argument
##klu
inten
smí
##stěji
prom
zemích
##star
comp
##rální
##nos
##mila
amp
začne
##eru
zim
uvědo
ili
##advaceti
##mys
německu
mm
kategori
léta
##sila
##žu
##šte
uvid
rodiče
severní
pokračovat
vždycky
##stře
ist
##mal
fron
prvního
buď
ocho
192
nebezpeč
##ovice
##bami
##čemž
nejdří
hem
přičemž
stane
hl
funguje
katast
něho
pilo
případně
růst
tat
radi
unik
úřady
bezpečnostní
televizi
##žet
váž
##tali
pamě
albu
zaplat
strateg
podobě
##ex
##bro
hejtman
##lík
arch
##las
##lex
asn
rychlost
park
fanouš
said
bec
živ
koleg
neú
##lají
tabul
##čce
zdarma
životní
nevím
němu
tvá
přijí
##tivně
have
##bali
##álů
příběh
##žovat
##moc
tém
nim
vé
fotografie
nahrá
domov
meda
218
myšlen
jednat
občas
prodlou
jih
mag
přítom
republika
přírod
rodina
zdravotnictví
##nutou
##avad
hře
##cid
složit
vnitř
taková
ruska
##orit
tentokrát
##red
##tar
##huje
nebezpe
bene
##gii
zneu
korup
echny
hlou
may
spojených
jeli
rou
spad
kdu
nau
##bora
##žek
návrhu
inici
zabý
nahra
jasně
ročně
##ela
zpr
jejichž
##ern
##mali
digit
závis
##ladu
dobrovol
činnosti
konzu
žalob
39
##ght
našem
pit
##livě
konec
budovy
##can
saz
existuje
technologi
##bri
hlediska
mini
hráči
brá
##tions
nedávno
jednozna
##alý
moje
dát
dosavad
wi
kultury
regist
setkání
souhlas
univerzity
devět
získala
sdělil
americký
prvních
dvakrát
zdraví
hudební
2002
zrovna
propo
druhém
irá
ipo
stovky
proz
prosad
speciální
udrž
spu
##mili
hráč
uží
výše
tajem
stavby
začali
zemana
##anis
##ivní
##orie
##anu
start
řím
měsíc
rada
vládu
##čera
##oku
zvy
##nete
##jezdu
možnosti
členů
##gent
název
##čené
##wo
##teln
##těte
##žených
lav
předlo
##cího
##stroj
předtím
##lena
šť
smlouvu
ep
radnice
hot
##zoval
dali
pojišť
##nali
též
##znamu
činnost
druhá
##hléd
obnov
ede
##ají
protest
##ini
java
vaše
západní
nemocnici
vzdál
babiše
##lovat
##isu
##pho
##átek
##lid
městské
králové
##žky
těžké
tel
ij
názv
rich
obchodní
ovat
potenci
will
představitel
krit
barev
vešker
migran
úrovni
výjim
volební
zlín
čech
číslo
##har
##žer
##vem
regionu
vodn
2003
mf
ligy
nsk
ruce
doplnil
##ádu
útoku
rokem
##orem
##ratu
každé
vidí
ukazuje
používá
multi
##kel
nechal
stanovi
nas
centrum
kem
##ance
ple
prospě
požá
whi
##ens
vypadá
##řek
docela
##jo
miloš
osv
nit
zásadní
debat
převá
##ujete
##padech
vystup
díl
můj
##lého
migra
hranici
důvodů
oddělení
francie
out
this
zvýšení
tov
konkrétní
většinu
student
##kazy
edn
##nějším
psycho
##emie
propu
rostli
##aku
uměle
mot
uživatel
vyšetřování
spojené
jediný
utr
##kového
mech
##kovat
zla
rezer
soubor
ped
otec
obsahuje
minulý
koncert
##zda
osoby
podstatě
##jetí
190
##ess
záchran
jab
výmě
popsal
##isla
##átkem
ulice
gre
góly
##rací
##rny
##ovými
pochyb
prohl
nejméně
##fen
##kojen
##lostí
##zar
2001
nekon
celého
##ovce
primátor
výh
nedosta
##ley
spd
názvem
gy
zvíř
fan
švýcar
nesta
armády
##que
##razí
spravedl
##au
vych
odpoledne
lad
umění
letošní
eko
ct
you
našeho
počátku
spolupráce
obvod
okra
ilo
hrade
majetku
nemov
ivan
speku
chi
##bem
##ier
takovou
sdružení
##níku
##int
##hají
podíl
příro
##šné
oce
čsl
členem
pojišťov
##nají
skupin
zod
příklad
##ciones
##lii
elektri
##ktů
bank
jar
mr
upozornil
ona
brně
minutě
pozice
##nicích
150
policii
oble
obn
muzi
architek
parku
parti
javasc
najed
##zek
hlasů
najít
iprav
##jil
pozd
působil
rece
pau
48
manažer
školství
##zny
##line
kriminali
kampa
lik
energie
mou
šampi
dalšími
karty
##riptu
hrom
těžko
milan
##lami
objem
vznikla
##klo
fal
oslov
analyti
washington
prezent
zapnutou
##ki
##bice
vzájem
fá
otázka
vysvětlil
##finále
příč
vystoupení
kalousek
vrátil
zased
##ónů
andrej
mc
##fo
vir
festivalu
pozornost
mob
demokrati
vybí
javascriptu
pho
případech
##laci
##ís
přišla
vrch
ků
žádná
nená
ing
##ribu
evropská
cla
bře
dobrý
popisuje
konzer
knihy
péče
bankov
55
skr
rozhodu
miliony
46
##kor
##vati
musela
vztahy
novinář
místech
musím
##řela
zobrazení
##por
legen
##níkům
začít
nesp
dvaná
hodn
rozvo
skončil
nějakou
veřejných
zdeněk
zraně
##rají
extra
odehrá
cestou
současně
seku
velkých
##jel
obcí
výzkum
nazna
##exist
hov
obli
administ
stráž
krom
##etě
text
##ťan
344
##nitř
nast
generace
##ling
uvol
střet
cer
jízd
struktu
slovo
pravo
1989
##žou
úspěch
##ších
##kář
rodn
44
časop
##desá
mari
vodu
hrál
verzi
dotace
hasič
prázd
společností
pohybu
ochranu
##dol
odpad
##out
stačí
stavební
schvál
hlubo
odstra
prostředky
##čnou
členové
najednou
navští
##váme
lednu
##ín
levi
ren
##šené
##lic
dél
nápad
##čím
##kán
druhého
##ln
cor
vyře
národního
rekord
vez
vyjádření
##obo
politika
zkušenosti
mani
lidmi
obč
svobody
pravidla
legisla
hat
##jícího
obchodu
náměstek
preziden
lokali
označ
pouh
##desáti
kuchy
fotografi
okamžitě
kas
energeti
sportovní
hlavy
had
##ickém
senátu
češi
otevřen
43
##řena
stov
##stoupit
##ňování
jaro
kav
##hen
mužů
##kuje
veřejnost
##zet
hmot
nalez
neexist
##rus
##štní
altern
hit
##chodem
ol
gale
##hly
nehod
daně
skute
rozum
vin
##cová
nejča
##násob
mohu
celém
radost
vrátit
uplat
poko
koste
schwar
##ich
soutěž
zůstává
##haj
mně
německé
trénin
zan
##bas
adu
respek
nábo
letošního
sezony
##hel
##eder
zaměstnanců
vil
##ýt
brněn
##aty
arm
jednotky
nasa
domní
##žování
minimálně
##vce
ner
moto
##aticky
svoboda
smysl
vyrob
podvod
##jších
##ónu
rozd
jíd
přines
vít
síly
konečně
kostel
promě
ohled
hlasování
shro
propad
tek
42
chybí
částe
kore
nejbli
připomíná
takhle
##kost
htt
gr
che
přihlá
malá
výhod
narod
##moř
odmítl
udr
plav
##bar
využít
hypo
##ware
počítá
moderní
ble
radik
nejvý
advok
čtěte
zboží
##ždění
inte
telefonu
dani
stál
rom
politiku
průmyslu
##nové
pracoval
špatně
nebyly
změnu
sledovat
dnů
##letá
mír
##psal
dodnes
##mile
poznamenal
sociali
skutečnosti
ptá
odpov
německo
##emoc
##lt
smu
nizo
##ida
médií
václava
##ras
##ckými
prev
útok
denně
šed
##tají
##zech
branky
role
41
válce
##razit
pru
##cvi
reál
mov
přízni
##růst
ank
dok
##jíž
bak
##enost
49
širo
srb
##mn
archite
##čtí
rozhodčí
dopis
chá
dala
kolegy
soukro
říci
##ould
album
##wer
muslim
žlu
alexand
gru
hodnoty
expr
twitter
chování
##tejte
kní
obrá
##štěstí
schvá
několikrát
divadla
line
##cházet
velvy
donal
policist
##nii
##tos
prezidentem
##gem
sezoně
##ovský
windo
ulo
##pustit
vedou
ال
dvoji
ena
##čena
show
##žena
předchozí
##ňů
vědo
týká
agres
metropo
natá
osn
slab
závěru
blu
##kop
parou
odmítá
vzor
##tre
komplet
nah
zápasy
jeliko
dvaceti
civili
##zují
##rad
##cové
papí
syr
aplikace
##ronavi
mluvit
fyzi
##pol
##rál
kladn
más
bezp
okamu
##aného
trag
ús
hlavního
sec
inspek
human
ministryně
věřím
maje
##nce
kterému
##lární
wo
boje
eta
sest
doprov
soft
cont
##sat
oči
výda
##ind
celkové
ozná
ún
##kazu
boji
##nává
přispě
kles
konferenci
prově
odmě
zved
##isté
mne
webu
koho
##eného
vyprá
75
##rky
##klid
##pověd
neměli
onemoc
byť
klient
hi
nádra
otázku
##mil
##mout
představuje
stre
##ročně
opakovan
##řitel
důvodu
open
##stit
absolu
##vost
souhla
gol
bydlení
auf
ich
připomně
##smus
##stili
poved
##vést
edev
pozitivní
raz
rozm
stabili
ubyt
##sledy
seb
##kladu
##kých
výš
##igh
uměl
windows
ostatn
areálu
zří
pokus
režimu
##čítá
názoru
opu
##mes
naposledy
stoj
františek
politice
esto
##eu
tlu
tradiční
zbav
##telu
problémů
dojde
exe
likvid
##sili
sítě
proh
obsa
počas
vzniku
cam
syna
65
studie
regionální
končí
##ostí
potí
ih
jejího
bezpečnosti
třech
nepoda
asoci
omezení
ředitele
doba
chal
##pce
zdroje
nos
kamer
vysv
evid
nábožen
škole
knihov
opa
##pov
lidov
vyjad
##čková
investice
podotkl
obvin
bri
glob
ostr
vojenské
part
tábor
naro
uply
spoustu
svému
slavnost
žádnou
úvě
##tka
raději
diplomat
##vin
snížení
##nec
##pal
soustřed
pacha
##tvar
##procent
51
##mun
56
německa
obecně
##řiceti
russ
považuje
aktuální
historie
##prava
marie
##leté
mad
pole
buděj
fondu
##ávají
půjde
##éře
mic
nizozem
prozra
vesnice
##30
gar
aktivní
dohody
ger
47
##čných
miliónů
chud
##ía
pozn
origin
mladší
pochází
##rka
zachy
diva
off
##pen
vaši
císa
##hodě
sněmovně
ohledu
##šili
analý
##roslava
stavba
nejvíc
nejspí
marek
poc
tram
stroje
##nář
zamí
británie
létě
kombina
report
tělo
tku
##bc
europe
hlavu
dol
matka
pomů
##romady
novo
názory
lékaři
rozsá
count
dohromady
vyzkou
pořá
obsahu
východní
svazu
ústavu
administra
subje
oslav
kroky
tho
správy
##jede
zah
anebo
repor
ina
pravidelně
nechci
pojist
nemus
rozhodli
změnit
šet
arab
politických
režisér
odhal
vyda
demonst
amerických
sing
vále
##ys
zauj
zajistit
loňského
sdí
kulturní
armáda
směř
##stila
##pit
##vací
##ovýchod
životě
martina
exeku
průmysl
soudce
zasá
##tive
počasí
každého
vážně
dokáže
##zené
zavá
ztra
řady
zaslou
takového
úz
rock
elektrá
dění
herec
##rn
letiště
##ktiv
zápasu
vyhrál
kami
začalo
tuzem
neustá
hodinu
##ów
##leslav
rozdě
nejhor
##ale
podniku
francii
nechat
dlouhé
prodeje
##leží
trestní
kontrolu
ústavní
přátel
spojení
rozlo
ovlá
##šak
##raž
##kcí
koronavi
##teru
jakub
generální
vznikl
právu
dává
rozli
slouží
vylep
aktuálně
pokles
jm
##lová
okamži
technologie
využití
řeší
##ány
rozhodla
jiřího
drah
sad
nikoli
případu
divadel
##ávat
občany
oznámil
úko
##ham
podeps
říkal
někdejší
věde
chtěla
bývalého
cestě
každo
poslanců
nád
ejn
nepře
idi
kali
##chová
incid
územ
vedl
ras
poří
odm
##atoli
očekává
##lené
vztahu
fra
64
pohod
stejný
hasiči
pali
600
zbraní
##bel
uká
rovn
mail
fede
dole
schwarzen
##day
zbraně
kvalifika
jinde
charakter
##tip
99
##líně
vím
emo
##gn
cm
china
šťast
spravedlnosti
doprovod
189
jaká
interi
##ární
slovensku
##žím
zdrojů
fol
ae
fav
případů
opozice
zásob
nákup
##jším
označil
don
##leně
motiv
egy
někde
merkel
povod
##tku
uvaž
riziko
pravdu
karla
mem
staré
##fil
žeb
ange
hodnocení
##form
usil
##morav
naci
spousta
infra
dramat
neustále
mav
životního
##enosti
nikoliv
komunisti
luká
##ovka
podpora
chor
obětí
hum
vadí
54
cas
zmíně
avšak
##hav
##nutím
strach
orient
rekonstrukce
52
nemám
chybě
zvl
snadno
posledním
hráče
předsedy
prosinci
distribu
proběh
##stří
##10
zajišť
vykon
nemohou
připad
skal
##krá
nejsem
ústí
pavla
obvinění
hráčů
##telný
dneš
ukrajině
ostatních
ochran
povinnost
podpory
zvláštní
anga
##timet
sítí
vydal
##šly
daj
nemohl
definiti
such
hd
černo
oc
televizní
bas
naho
jejíž
pořádku
zrušení
smrt
tomuto
##mis
mladé
delší
zisk
##ude
nájem
palest
kvalitní
son
obtí
projekty
nie
##čením
respekt
obavy
spokojen
velkým
vypo
market
otázky
cykli
místopředseda
podporuje
inc
##cz
věz
horní
ant
vor
spotřebi
##pán
##top
důvodem
but
zabez
kontra
sklá
slá
##ladatel
800
odliš
využívá
57
závaz
trval
otevř
filip
nejdříve
rozs
narodil
architekt
##vidu
##dění
občané
léč
mého
ekonomické
svá
jiná
nezaměst
pc
##čej
dalšího
ráda
banka
výjime
pobo
vyjadř
péči
##mann
##cht
komunikace
šance
použit
vojáků
události
ret
geor
hez
domác
fis
mláde
##lev
parlamentní
největším
útočník
##rolog
mobiln
vyhled
##xus
představit
##zky
##nily
imi
smyslu
deva
##átů
zahraničních
příspěvek
its
##vedl
bývá
přiná
##ente
bed
##zivní
##noj
přím
vit
vrtu
drží
ptejte
konkrétně
##dři
##bere
edsed
##šený
malý
nky
kdysi
ekonomiky
##struktu
podezřel
nejmen
amerického
patri
nedostat
##zt
fyz
zvítě
who
mysle
jelikož
individu
svoje
novým
zadr
zájmu
plynu
nepod
##vov
##gue
chystá
##iče
poslou
vyžad
##ding
##bre
vrchol
##ěl
##isto
sýrii
##fici
prací
wal
##mm
nespo
jedená
##lína
neček
##ghá
##ánu
potřebuje
dopravu
more
##lig
nádraží
##tivy
pracovn
59
##dem
hovoří
porov
kanad
česka
podezření
obci
velko
jedinou
libere
kolika
děje
##ep
hospoda
dodrž
##itou
dla
padn
filo
##set
odsouzen
květnu
tlak
jinou
autobus
##tečné
his
nejed
##tít
##čený
dokáz
##fy
obhá
týdny
##tla
novém
##rami
divadlo
sun
evropského
##roso
vladimír
dosah
mac
css
cíl
audi
komer
roste
chv
plně
írán
##řily
reakce
naje
kot
##din
##dé
minulého
##čích
##tice
jam
noc
jménem
silnici
##liam
##tý
##use
děl
automat
přesu
##slova
ohledně
##mr
diváci
dubnu
vysky
oficiální
majetek
58
diváků
kabin
série
nach
praxi
pomalu
potravin
edu
udělal
činí
tvar
škola
řádu
pojištění
##tují
##vých
přišli
stávající
mó
one
##ána
křesťan
##šuje
##xe
eva
##itor
detail
třídy
avi
##žela
červnu
zpěvá
neměla
chem
##čily
obsad
osud
srovnání
komplex
##rozu
##nn
ročníku
##denti
##tic
poslanecké
kontakt
posou
účet
směru
změna
vozu
kampaň
kterými
itom
posil
all
lem
##nad
termín
##letého
##eld
zaměstna
lize
brex
hledat
obrán
zdůraznil
afghá
elektro
##idlo
goog
obo
částí
ondřej
53
teploty
někoho
##ic
##uer
šéfa
nedaleko
stavbu
stylu
shromá
dph
##chala
##níkem
##ition
##lia
centimet
objevil
domě
nese
namí
ostatně
vice
alkoholu
operace
námi
venez
masary
míru
doslova
vedením
druž
krizi
poráž
hes
##lených
kin
členy
##ally
pirá
příbě
správní
přestup
štěstí
##cip
##kého
etn
středoče
##nicí
##fal
##áty
jednotlivé
kapacit
asociace
nada
březnu
tk
každá
předpoklá
stop
poloviny
patn
zbytek
šel
##stil
##mace
předpokládá
navá
zajímavé
##ados
hudeb
psychi
tiskové
nejm
uvnitř
jakým
neroz
jezdí
##los
##ovatele
hromad
těsně
pacient
letadla
padesát
peč
cca
180
##eš
zápasů
div
opakovaně
##zná
tvůr
##tex
státních
posta
##vie
konflik
##koval
zhor
evropsk
got
jablon
odkud
převážně
nejčastěji
částečně
import
šu
jemn
milit
##áček
which
celkově
seg
##cord
obr
pape
1998
kontrol
přišlo
skončila
pozdě
jména
důsledku
mamin
inde
stn
navrh
úse
pochopitel
možností
podmínek
oznámení
přeno
dopo
vozidla
world
přelo
bomb
požád
##stěh
nejstar
rozpočet
##ovic
bytu
seriálu
konstatoval
negativní
těší
žebří
nemovito
znak
cti
ki
vytvořit
##lice
dochází
nevz
187
soutěži
##ík
profesor
##zie
boleslav
ošet
##rid
překon
##ýká
##ža
##působ
##ováni
nene
začaly
bojovat
vala
seznamu
slí
dostanou
##ovské
aktivity
1990
mb
vychází
časem
moderni
horší
##lépe
boh
mnozí
##mení
postoj
sur
slová
pedag
nejlépe
##gon
vraž
vysoko
procesu
##yer
##sson
##ora
značky
dětmi
zkra
##ortu
unii
modelu
romá
viděl
##kovy
graf
mění
výročí
pobře
##ismu
1999
wer
pojmen
##ací
známý
##nických
úsp
zodpověd
##kazují
hradu
vari
##mati
radní
##énu
zaměstnanci
vzpomín
škody
zkla
##íte
akcí
nezaměstnan
takových
výkonu
##vejte
##ney
zpěva
##pec
##nera
postavit
nejbližší
snažil
##alizace
jednalo
ono
přiznal
ostrava
budoucnost
##zov
##ill
##čko
přís
tour
nedost
nezbyt
prefer
pokračuje
media
skupině
tky
##ans
firmu
system
##brojen
nechtěl
nhl
budoucnosti
šla
prohrá
informoval
krej
rozhovor
vozi
##rodu
těla
nechy
prostředků
zemědělství
stadi
neúspě
zábav
touto
závěre
turnaj
iniciati
sestavy
120
robert
fas
eri
##ovatelé
##hala
doktor
##čt
austra
následující
licen
erv
inspi
##ovaným
##živ
zajímá
byzny
been
they
uskuteč
oto
ub
jaře
##kování
ref
stránkách
prvo
desítek
kategorii
##enom
zápase
figu
alternati
žít
nef
##ear
##kola
vyjádřil
váš
vrace
##čín
polovinu
##bení
jediné
für
zdr
posád
##sche
eeu
integ
vlasti
centrální
voličů
kouč
porad
eeuu
činu
rusia
##ink
##maz
group
jednoznačně
dvořá
stíž
úroveň
fungovat
terez
homo
trvá
ochrany
jisté
ztrat
##era
##skok
nk
vysokou
##čel
gym
civil
semi
politickou
představení
evropa
čímž
upozorňuje
dokud
podla
adam
mni
vždyť
microso
povolení
záchraná
použití
##ité
##jeli
experi
podání
víme
referendu
sbor
statist
kategorie
##tury
čase
dán
##ser
##střel
##čného
písni
zájmy
##div
nesmysl
údajů
##are
dobrou
kře
nomina
design
##jila
přijít
výbu
doufám
chorvat
svaz
##isty
říjnu
druhým
##letou
svobodu
##cát
zdi
luxus
chtít
předčas
##enky
país
##entní
##pera
moře
ivot
stnan
##80
trati
barto
srdce
síť
třetím
eny
vzrost
orgán
oficiálně
muzea
coby
##vaj
wir
narozen
bruselu
neh
nemáme
rove
kateř
senát
stejnou
všeho
poto
vyslov
vypu
##mání
náhod
##teo
##avě
každou
cal
##ish
ruku
##bila
měsících
##nický
kultur
poně
budoucí
fotbali
únoru
naru
##mum
zahájení
##ujících
zran
odchodu
spočí
lud
přeprav
studia
zůstal
##lich
##řím
hvězd
president
pořadí
##leh
deník
českém
středi
američ
maximálně
ros
##neme
##lis
přez
vyplývá
spon
nok
modr
vu
umožňuje
náhradní
odvolání
internation
podm
sb
gov
##lému
brna
doj
veřejně
nejspíš
demokracii
přiblí
polí
skupinu
##livé
přeru
loď
připomín
prou
evropskou
postavení
kus
itálie
dalo
severu
vozidel
navý
státech
##xy
srpnu
pražského
identi
##cené
hotelu
katastro
divi
##cer
##lohy
problemati
##fon
##die
##ády
závěr
jednak
metr
esta
stv
atd
party
výsledkem
ocit
venkov
##ývají
oblastech
##růz
každém
návrat
vést
justi
růstu
severo
hranic
veřejného
zaplatit
##eri
displej
##ůležit
připomněl
asp
##obec
rodinu
wy
state
##chách
anketa
85
úča
žádost
ovlád
mikro
čez
organizací
závaž
třemi
psa
prvky
strom
russia
nehody
najevo
projedná
ekolog
strate
donald
##gal
tane
city
jakmile
asto
nedoká
pád
##írá
##ano
daniel
ekonom
bonu
##cházející
vybrat
pó
eno
##kin
manipu
rakov
navzd
volbami
skutečnost
reagoval
##vané
vnitřní
veškeré
zkrát
společné
##nál
navzdory
čet
sebev
##čík
kongres
tvrzení
cíle
američan
silnic
vozy
##cker
##prá
jihla
kazn
##dos
kauze
vzdělávání
údaje
schopnost
jindři
neleg
námoř
upřes
##áti
přechod
veden
chodí
66
afp
##sin
over
hudby
##bán
odboru
budoucnu
anto
opo
brati
koupit
soudní
##škod
hotel
počítač
extrém
příležitost
ihned
ukázalo
dědi
desig
ukrajiny
palá
##tala
nale
##nulo
vytá
koncent
poslal
nezapo
servis
hrub
zjistili
rozšíření
podpis
obdr
skand
mobilní
vozů
televiz
průměru
##čují
poby
##ovaní
elektř
##zena
proná
závodu
##jela
uher
hlavou
financování
77
cd
řeky
čísla
hř
##tivn
##luvil
vesel
smlouva
necel
este
kob
návrhy
pokou
vond
vyjedná
##terie
jedni
liberec
##ves
místních
##inami
sjezd
##port
skla
nedáv
štěpán
##kono
aniž
##nictv
malí
druhy
koaliční
dětem
novot
baz
současný
lite
prop
pane
ruský
objevila
reakci
fotoa
dřevě
jím
##žená
zes
pes
železniční
stanici
týdne
##lém
studenti
##áři
pry
nebudu
##mysle
vůz
karlovar
přet
válka
slovensko
výpově
pokro
čeští
havel
pivo
ul
lukáš
komunit
vlaj
##evrop
kame
##ction
##šování
michael
změně
účel
konkurence
##ele
pěst
číně
odešel
naštěstí
míní
##pisy
dřív
##ovku
pořadu
editel
raket
všude
nikoho
příbu
##ůležitější
díla
zůstat
mediální
výrobce
americká
infrastruktu
policej
62
flor
okru
##stro
rozhlas
hodnot
richard
obyvatelé
ern
nat
exter
pohybuje
slovy
deb
##telná
aspoň
##ous
##ota
nebezpečí
prosa
odvá
##hot
úste
pokr
##low
##muje
##nově
odborníci
##don
obhaj
dosavadní
nejdůležitější
působení
sout
aus
tová
informaci
##latí
základních
objeví
deníku
známé
školu
zoo
razn
děku
zámku
##stroje
záměr
vymě
google
británii
##žují
##leb
##ovicích
zabí
zpí
styl
dokázal
pardub
##ach
daní
začátkem
oboru
článku
##jd
##istů
neuvě
stali
##rátu
##vahu
minuty
rozhodne
ryb
christ
aust
bratr
strá
výtvar
nepat
72
lodi
grand
výrobu
nastoupil
##ult
oku
tit
důraz
muzeum
ovo
probíhá
##hraje
zavedení
dozor
týdnů
wol
united
would
vyjde
##ert
verdi
soutěží
##slava
konference
čtk
přirozen
spisovatel
juni
plzni
režim
##kém
normální
hlavních
nebyli
nabídku
překvapi
ovl
##rové
předsedou
odhali
vrátí
##cos
zkušenost
international
klasi
jiným
##člen
vojáci
kontroly
ocenění
řetě
##lovou
prahu
topo
lubo
##und
tj
schopni
ministerstvu
článek
##děje
plné
doprava
nejpo
kamarád
násil
hrdin
cre
nezi
hasičů
islami
učitel
##lách
dostatek
vad
##jednodu
nesouhla
zastoup
##lina
dosa
výroby
##inst
lehce
nelí
##jas
nomin
##kovým
miku
piráti
alo
jednoduché
druhů
##ředu
##tin
zakon
bun
stranou
##stev
photo
kape
deví
klo
materiál
##sel
číny
pěk
strav
transpar
##stvu
polovina
col
poklad
jet
bio
minimální
##sian
##leš
přemýš
povrch
mnou
##něji
znalo
##nej
souladu
samotné
vstoup
pomáhá
proud
modely
sie
domy
listu
trend
technické
ohledem
projektů
##komp
##cházel
logi
sol
sankce
dlouhá
econ
##ismus
sus
##áře
vzal
##čová
##sm
čeho
prospěch
lig
zpátky
strop
ker
##chou
slune
##encí
balí
bere
platfor
ozbrojen
doty
důstoj
statisti
čtr
aku
##rz
zásah
eho
##menout
plyn
vzduchu
viz
700
##ženo
sams
ministrem
pic
jihoče
limit
##ischen
##fikov
1992
návratu
jihomorav
maxi
##net
násilí
městem
bron
smart
##tách
vstupu
restaurace
dvanáct
oblíb
prohlíd
zasah
rychlosti
mh
205
pokry
neznamen
sděli
##nesl
188
hospodářské
ženu
##cra
jednotek
kniha
jejích
průzkum
##ward
hlasovalo
zou
neznám
azy
přednost
jihu
nárůst
times
plus
dohodu
čína
##ovacích
##též
##enu
##mir
##něných
##ms
tari
##čném
##lár
odpověď
##ery
policistů
zastupitelů
vle
bbc
konkrét
##lum
##eli
abyste
určité
##ůl
naří
doč
řidiče
krajské
online
##čených
##kazem
trestu
přichází
maso
##řeli
rodině
1996
lok
##žením
rovnou
plánuje
##lub
chlap
konfli
věnovat
bojov
podobný
##dl
dcera
##desátých
##zování
vyhodno
ideální
nemůžeme
útoky
1997
vodní
písem
hlasy
186
zprávu
##lance
beneš
portu
schopen
ačkoliv
litera
pivov
experiment
krem
labem
95
hledá
nepř
como
bole
facebooku
bes
třicet
##nka
vodou
nepodařilo
přítel
koli
poslance
příštího
kanc
##ange
úro
##zený
dílo
stráv
##tost
zahy
ostravě
1945
kmen
dosáhnout
prud
řidiči
velikosti
jezdit
##šena
news
udělá
##vější
mnohdy
menš
zvyk
prince
##tolog
##zka
bom
defen
##razila
okamura
ilu
hygi
zákony
##míra
##lant
##dox
nation
pamat
nemuse
koncep
poháru
průvod
##aka
shr
dolní
##get
##eda
##ake
if
převez
vyho
čest
čekat
dělají
york
kříd
uveden
odd
yorku
garan
ela
předem
poptá
rumun
tera
##jili
ass
symboli
nezisk
paroubek
skončí
##bie
získali
rozhodnout
dass
kompli
peop
also
nepříjem
soupeř
bytů
##udku
advokát
czech
psycholog
##ido
mladá
##vist
##ckem
##šením
##jat
včera
nejhorší
##leka
setká
přijetí
nicht
dobrá
ruského
mnohé
budova
patnáct
skó
cítí
peter
##zených
návštěvníci
zamě
cuk
##něna
východě
popla
sráž
##řením
ově
1968
kad
##chat
vědět
dočas
bohuslav
budov
dres
kanceláře
vybavení
jediným
nedostatek
73
iii
míry
wh
průzkumu
bat
zjistit
malých
sms
##aliz
vzdě
zůstane
dávno
63
sérii
schwarzenberg
zábě
mý
##var
##ab
##stvím
stupně
čemu
nohy
minulých
letoun
##ones
vysoč
iráku
##klada
českým
olomouc
uhlí
otce
adresu
příležitosti
vrací
filmy
##tace
zastavit
##lement
vej
divo
inou
dluh
rozu
##oty
mso
odlo
govern
kvalitu
viet
##čkem
tka
porod
aero
formou
společného
zor
chodit
pohád
záleží
##ženou
podnikání
people
největších
lam
žijí
##pem
##nala
vyví
raj
stupňů
esn
mzdy
kampaně
maximální
červen
vyrábě
dopos
primátora
3d
pay
posto
lob
kapac
inu
silné
odpor
##žá
zabezpe
kno
rekonstrukci
##álové
kapitán
##com
onemocnění
apod
kříž
řec
inteli
dojem
68
produkce
událost
##řeny
##óně
většině
##nět
napsala
william
aktivit
vyšlo
akademie
kláš
##ruhé
pospí
otázkou
všechna
palu
dojít
postupu
zařa
důkaz
doposud
hodnota
osobn
šedes
agent
cizí
starosti
koord
##čům
lídr
##rovou
potřeby
##dej
country
apple
sportu
##kyn
neexistuje
presti
schod
zkrátka
mladých
##zila
eme
terro
angaž
mostu
knih
divadle
siln
čechách
##lových
existují
stává
argent
zloč
servi
objed
radio
##ticky
hodnotu
##žily
vojtě
##sten
##zce
67
##rna
dostává
##dro
virtu
sví
strašně
zločin
contra
##stri
moravsko
trať
mezit
klidu
##litní
76
##vních
chytr
instituce
##ls
znal
velkého
##zz
představen
německý
částku
##ges
zdaleka
řídí
usnes
##vale
matem
sky
běžné
##nického
##kým
firmě
chyby
##mní
nava
budoucna
našli
potvrdila
##mas
zavo
##slez
##ňky
##rátil
##nalo
týmy
##rono
##rový
víkendu
##tl
barvy
řečeno
dálnice
velitel
##wy
pirát
##tonu
bli
##poví
negati
biskup
kg
after
##stánu
správně
prokáz
dlouhou
vtip
hřiště
měsíčně
##moci
respektive
vlo
řez
ms
##dějí
nacion
ohrožení
jasn
hradec
##dající
##zační
andreje
russian
dez
##poli
vlivem
projed
##broj
##para
bob
soupeře
note
uprchlíků
##cle
nastoup
případy
lidovky
použít
nepřá
hard
červenci
##kam
utrpě
nalé
natolik
dozvě
tvrdil
komory
##mění
povede
jdou
##21
novinky
##inec
přírodní
##lovi
kostela
krajích
odchod
jestliže
britské
##názi
výzkumu
##nské
##ňa
lib
bránit
miloše
vzdělání
sezonu
špatné
neprav
zneuží
píse
bis
vze
facebook
any
their
gymnázi
pedagog
rozvoje
##ami
dies
##kupu
##svět
smluv
##vere
služba
ukončení
klimat
vědci
přední
##cs
dopředu
přináší
##pozice
ročník
penzi
linky
přesvědčen
69
letní
##gram
antoní
vašich
sony
cestov
nere
moravskoslez
letou
##rover
štá
kapely
vicepr
vynika
##ickými
aga
stres
##oriz
podaří
informovala
podívat
pardubi
jediná
novináři
zprávě
##teorolog
##tický
zvířat
euroz
vyvolá
vietna
##ider
##žku
dvojice
chto
vydat
dostatečně
odpovědnost
podíle
šlech
##rné
projevu
vhodné
hrají
příjmy
nebudeme
mluvil
##bus
osvobo
humanit
zpráv
gala
##ac
ala
kanclé
přístav
dostalo
kurz
vyvá
devíti
zní
třiná
poví
výsledků
##dám
podívejte
##ret
osa
vydr
##bilní
##něný
oblastí
mate
nabíze
vyhov
##sexu
##ctor
tito
ačkoli
bývalé
government
okna
discip
polsku
drog
chvíle
pracovních
cestující
aud
plány
##maj
odborníků
feder
zvlášť
organizaci
smet
král
##žka
1994
objevily
geo
nam
epi
majitele
komo
karo
dané
##encia
##bs
lah
pořada
lar
vyprac
třiceti
součást
nahraz
dur
rol
předná
atent
cele
obránce
##tová
opráv
titulu
##vách
tamní
vyhro
ústřed
pun
nemoci
poly
silný
log
##čená
pil
zpravidla
liby
ušet
šir
zdo
okruhu
zvláště
jel
učin
blíží
správa
1993
##dolf
##lací
poněkud
kim
finančních
sw
velikost
službu
dostav
zpří
zmínil
##rum
##dka
##cin
##logii
snaha
bol
plate
rath
dneska
dolar
##nin
nějaká
##niká
##poru
dohoda
##ovac
1991
ruka
stará
##něním
lucie
úkol
vysoká
městech
ruských
bulhar
topolán
slyšet
vyzval
integra
zaplatí
polá
poznat
zajištění
radek
imu
privati
blan
osobnost
dveře
pomohl
čekají
něhož
sbě
socha
##štím
kvality
##měry
úž
rozv
61
postavy
předvo
ukázal
osvět
populace
textu
##gor
láz
ochot
##af
dopoledne
##anů
automaticky
smut
##ňka
označení
rozví
sin
##bl
zasedání
americe
were
##nt
slad
programy
lidských
##ovatelů
obyčej
##vosti
promí
##rian
##prová
fanoušci
paramet
velvysla
oli
kaj
manželství
mlé
původu
##sur
ulic
chlad
konfliktu
moderátor
výjimkou
zal
sparta
suver
##jov
pomůže
##velo
politický
hory
##itelem
josefa
##telně
nejvy
nezv
ladislav
recen
down
ozn
##žilo
kó
reg
bojí
kurd
##ruje
nástroj
##čov
nece
letošním
##ňoval
víkend
zejm
publika
deut
##šilo
##šeli
##ye
republiku
##líž
politická
chyst
##hnou
historické
nezná
##24
solid
stanislav
##vaný
##kční
kariéru
vystud
##pil
časopis
900
priorit
univerzitě
porušení
katoli
všemi
ssd
medaili
##řelo
techniky
zájmů
souvise
1995
echno
pobřeží
prodeji
się
odborn
konkuren
##jdou
##alog
zákonem
##átu
hráli
##jů
shromáždění
mise
sílu
startu
okrese
nejni
maga
##dách
motiva
time
poblíž
teroris
##áno
ucha
##kry
hil
telefony
objekt
bon
stíhání
dráhy
operaci
##zan
##něk
##lým
izo
##štěn
ivatel
##él
nejrych
jedenáct
důvody
##wood
rozvod
osobnosti
diskuse
##úto
nepřed
prostory
pražském
##rala
čínské
##pět
##razili
paříž
vytváří
strategie
duch
itálii
sich
develo
požadavky
zbroj
netu
74
kolá
zky
hní
robo
vysílání
říkají
koalici
mark
##ovému
diskut
přede
ska
europ
palestin
##mente
trž
jád
přestav
##vykl
chov
clin
stad
byty
dotá
mysli
##zou
věnuje
##čným
procen
podpořit
oč
##řice
herečka
sluš
záležitost
československa
odpovídá
odehrál
vyhrát
##fic
##nula
explo
##menu
poskytuje
nejrůz
polska
premié
portugal
jez
old
obor
druhu
založil
přehled
insta
doved
sáz
uzavřel
##fik
brn
těmi
##vateli
year
víte
rozhodnut
redakce
studentů
blízkosti
tes
peri
trvat
##olu
prosp
paříži
mistrů
nazv
zastupitelství
dky
hen
##ózní
mandát
##rku
připravuje
glo
there
##ovost
##lejší
účasti
překá
zdra
chybu
##gace
tmav
prosadit
problémem
benz
zaor
zabývá
jeze
změn
kaz
##právní
obama
extrem
připravit
rý
černé
přestá
živnost
výu
klause
poločas
frek
nokia
##kající
třikrát
draho
uta
jednoduše
prozat
kruh
alba
https
krajský
##kaza
zahrnuje
provedení
obchodn
##mentu
momentálně
prodloužení
výběru
##lom
##isí
daří
detek
malou
čo
mes
demokraté
naf
neom
žil
čechů
krajského
vlastních
přízniv
zopak
noviny
používat
uplynul
panel
řekli
dluho
žebříčku
sex
fázi
##lují
pokoj
klidně
##lalo
obyvatele
janu
kousek
vypadat
sýrie
týdnu
hn
úseku
ruskem
##tura
udržet
vazby
kartu
matur
nepov
frank
spot
##burg
##ůvod
jinými
##ško
slez
odvolá
naprost
##ologie
rozhla
všeobec
##čeb
##last
odvez
relativně
pel
silně
dolů
##nická
jack
##pání
lek
zmín
hudbu
oznámila
zr
londýně
potre
semifinále
tvrt
vytvoření
##žije
zadní
used
agen
neře
##znat
##pří
generál
afgháni
provinci
rozhodovat
eine
cov
hold
povinnosti
frý
ichni
surov
##ktoru
zato
galerie
##nick
zvýšit
případné
zámek
era
inspekce
ira
spá
vysoce
církve
ropy
kilometr
nabídky
komunikaci
tot
##aným
uzná
ip
under
císař
lim
mimochodem
zaru
conf
království
produkt
konflikt
letadlo
vytr
hřbit
našel
vývoje
ou
kontaktu
##ey
bár
##roid
84
zlepšení
black
##rich
##řech
forma
teor
kavár
lhů
karlovy
ředitelka
##zdob
##kres
světového
asu
nova
procház
##vajících
spokoj
trium
zvaž
zařad
pacientů
nedě
pohodl
mexi
term
rodičů
rostlin
organis
následujících
entre
potě
úžas
pohla
##řený
##sic
blá
filozo
##ola
blízko
troji
udělali
popsala
clinton
sf
lip
bask
vztahů
paradox
zřej
popular
demonstra
##bia
výsledku
microsoft
zjednodu
výdaje
opoziční
mladý
fri
##cus
zabránit
##hali
##zovali
úsmě
ekonomika
kníže
odstup
monitor
úspěšně
současná
mco
informační
diag
hudba
mgr
obranu
flo
pilot
##eně
vzpomíná
vteř
věnoval
##rg
nechtějí
##lilo
##zovala
abou
fla
zaměstnance
manu
vzác
začátek
##cházelo
##cek
splá
noční
producent
postaven
sekun
údo
dítěte
debu
potřebné
dovolenou
hosp
ekva
všim
ková
uspě
sleduje
jemu
##oti
doch
venku
##stin
konstrukce
nále
zdejší
soubo
většiny
potvrzuje
##čnost
považuji
ruská
##šiř
vydavatel
71
##ráží
přípravy
##gas
zakoup
sporu
poprav
##něny
##kas
potřebují
emp
stadionu
vzít
profesionální
george
uspořá
mezitím
dku
##procentní
zakázky
kdybych
##gani
##nějšího
voliči
##udr
převod
##tud
cvičení
scho
britský
abs
vedla
sociálně
##ła
pracovi
##domí
##knout
koruny
bonus
schopnosti
##ša
přest
vánoční
nařízení
soudem
křižovat
obslu
##ropu
slovenské
fc
isra
zabývat
vidím
##žoval
pražský
free
platy
reportá
sdělila
##sou
##držela
uskuteční
nepotře
snížit
##ings
správné
##vent
havlí
nejlepším
teoreti
moskva
sei
nepot
##ávání
atra
##listy
přímé
kusů
##dov
novinářům
politického
stránky
##ktem
kn
##kův
trpě
°c
napětí
##ture
brexit
##telnou
umožní
##wal
nákladů
sar
osu
##bod
krist
instru
vznika
##jan
agre
letu
krále
rostou
karet
rodu
##stům
about
vky
parkovi
překro
nejsme
hlava
vybran
nejsil
bás
##vát
interpr
obrovské
představí
dokumenty
fanta
nárok
##isi
zka
##taci
kapela
oteví
matky
věděl
stromy
pádu
materiálu
expres
odstran
bill
##wei
nejstarší
ehr
paměti
venezue
sjedno
##deň
tradičně
##álek
austrá
kateřina
komplika
vlastním
184
turnaje
viditel
předbě
extrali
doprová
používají
poděk
lidské
expert
##luvit
pramen
##dav
slunce
vybaven
vydala
reprezenta
mírně
hodlá
musejí
##way
##bám
anony
knihu
příbra
evropský
cup
deci
ivana
bodu
princip
zůstá
##niky
osobních
gam
neust
rozšiř
snímek
loňském
církev
naka
##zili
šampioná
koly
médiích
obháj
krejčí
##nímu
ekla
opravy
kontin
kel
představitelé
podruhé
eng
##ovaném
poplatky
nepou
takovém
vystří
informac
chuť
pardubice
komunisté
značně
snažit
probě
údolí
praxe
magistrátu
78
pobyt
oblečení
úsek
přírody
uchaze
neut
sněmovna
včas
orche
##řích
francouzský
reprezentace
termí
real
významné
podiv
##bet
notebo
příštím
pracují
mach
trpí
bronz
nemohli
##šková
samsung
sci
alkohol
zhodno
inclu
kontrover
neschop
zazně
##šová
polsko
dia
neděl
souvisí
občanské
astn
vysoký
pás
lito
předchozích
##vkou
sedí
říkám
havla
zákro
černý
hodině
hloub
prior
blesk
svr
zjistil
##60
volit
němci
šampion
ily
požár
bezpečnostních
kně
přispí
##ations
79
běžně
jídlo
nahoru
##tové
přístroj
odpůr
přistoup
rozhodn
olomouci
přidal
manželka
hdp
tomáše
transport
michaela
130
velet
turecko
nosi
naps
uvidíme
##ún
sz
##bývá
89
specif
##istické
##pisů
objektu
kres
fungování
důvěru
francouzské
takovým
centimetrů
nku
##nuto
ipho
##tami
vyhrála
gob
mich
##úd
poškod
čtyřech
častěji
marketing
celkov
neznamená
ude
podobu
evropu
center
třetiny
povedlo
začnou
chyba
školách
přijdou
řem
1948
##inc
##znak
##itost
cat
petro
areál
síti
hlásí
žádosti
det
silni
fue
pohř
ima
sav
prohléd
rozporu
mila
dvojnásob
http
úpravy
jihovýchod
papež
zpracování
##orf
lékařů
##léze
zákonů
agro
vlt
home
líst
míří
vali
posléze
volba
novela
aktivně
talent
87
vv
oběma
##šená
příjmů
trav
jídel
##rová
brání
zpochyb
patřil
konat
technologií
fischer
pala
##cuje
##štěv
hudebn
nemysl
##řená
takzvané
zápasech
poslu
##díž
složení
##šily
staly
##zované
what
nar
dělal
pokračoval
tudíž
snažili
rozpad
rozsahu
pobytu
##uju
fiala
uprostřed
##áme
německá
kluci
předvá
plochy
##fikace
kw
branká
využívat
other
svatého
zkon
##ento
##ovič
inspir
rekor
navrhl
vydě
kated
pero
leo
dostaly
##vor
jiní
připomí
lenka
rakousku
##řicetiletý
plno
dlouhý
##bin
lea
##ovského
volks
##dera
povolen
##loval
ebn
mp
##ło
dotací
hně
hodnotí
spolupracovat
zaměstnání
důkazy
west
rober
rizika
apo
miroslava
##zeno
podporovat
##nci
##stříc
##dad
policejn
##luvili
##vedla
##als
omezen
současného
fakulty
vyčí
smo
podmínkách
itel
potíže
podal
výstup
iran
##prů
##drželi
##czy
úřadů
mateř
umístění
odpoč
##komunika
##ýval
událostí
denn
mapy
pap
##živo
nechali
krajských
está
##cto
vytvořil
jimi
řeč
lodě
podporou
stanovisko
kariéry
jes
88
##fr
##kovice
výstava
##oria
bezprostřed
duše
nort
soukromé
że
jmenuje
stri
hodnotě
liga
##tan
zůstala
zimní
podnikatele
##mám
hřišti
##inám
zdro
##letě
##ňující
vina
písně
só
pohon
oddě
doplnila
enou
arche
filmů
bílé
##počátku
metru
zrych
##hm
kancelář
##ip
epid
částky
##stanov
ukázat
##tější
týče
lis
reformy
usnesení
studiu
dynami
demokratické
##avou
hern
přání
##fie
občanům
accord
prosaz
twitteru
hand
trenéra
aplikaci
##denní
vysokých
přijmout
##wag
##idente
příbuz
městského
předchů
##rově
okruh
##hrady
vlak
##ya
alespo
omy
revoluce
##rových
ambas
skončilo
varuje
##kyni
vstříc
formě
lyža
nue
##naj
##ologické
populární
okamžiku
stříbr
trou
vymez
esp
miliónu
veletr
mec
sloužit
##emii
pravd
zmiň
##ins
##nb
systémy
hosté
hana
podepsal
eti
schval
zaměstnavatel
senior
##štěm
samotn
děkuji
proslu
patnácti
muselo
jest
##bět
vku
pul
stavět
koní
hnout
nestalo
kriz
miss
orgány
kolegové
malo
bombard
##kalo
ruky
sněhu
##rit
##idi
obrovský
map
software
migrantů
žádá
zálo
poslankyně
cou
hrách
mra
##pg
záslu
analytik
joh
kolon
97
zahrá
nechceme
nesk
navi
očekávat
stovek
knize
##éri
##odár
kombin
hypoté
##wall
kun
staví
unes
##lově
trumpa
nedošlo
nastup
domova
83
incident
míč
##zit
hlasovat
autorem
úspěchu
##řky
wel
provin
##än
##kul
češt
chovan
##bral
následky
nevyh
vládou
johnson
kauza
##inové
tribu
against
robce
hlavě
nehoda
imigran
severoz
dodat
##cest
nejvýznam
kompletní
export
zani
##žitel
měnit
seriál
německého
##eze
meteorolog
archiv
##dci
pracovníků
##ston
##veřej
líbí
mechanis
znoj
##čovat
basket
##čeny
těle
psych
dovolit
##škol
zpočátku
prozradil
risk
intenzi
gb
she
byznys
##roval
nešlo
přípravě
dají
zaned
souboj
kauzy
sazby
recep
látky
kompet
81
tenis
##álem
úspor
akcie
dosti
okolností
mali
##rovat
poradce
brou
zaháj
##nickou
čtvrtletí
##zující
krve
domácím
skry
koupel
##uš
brát
ojed
##nová
pražských
dvd
poměr
ztráty
poza
sklen
policisty
sum
zjišť
literá
uji
válku
##livý
rop
horo
podrobnosti
##lový
zázemí
ges
##torů
##átorů
vyšetření
zastupitelstva
##ario
unikátní
hvězdy
branku
soudy
pořádně
land
nakup
zuz
marké
##asy
vesnici
oblíben
řemes
##alizaci
##zat
podél
##čnější
##zil
matě
reagovat
kontex
##wor
afghánistánu
samotný
##ect
přil
brankář
otro
výcvi
nejvyššího
nepochyb
referendum
záme
##gos
integrov
koně
metra
fó
spat
cigar
slep
oběti
uch
jaroslava
##lera
nevý
auch
##amat
tip
připraven
cro
důležitá
##šťast
klasick
čtvrté
soko
##ývající
finance
výstavy
nechala
vyřešit
jit
posledního
##rea
##kne
rakousko
russland
##sudek
labora
patrně
##lion
davida
myslíte
vyprávě
##ést
smartpho
poškození
takti
restitu
ady
hv
##érů
potřebujeme
##stou
mel
jane
autora
jede
dev
přizpůsob
chalup
zaká
##západ
hodinách
zasa
problému
moravy
znamenat
ya
##kovém
hejtmana
přer
můžu
egypt
odol
soustav
dispon
mur
sítích
jasno
iss
formula
##mie
národním
##nuli
některá
odvět
velkém
spory
##kaly
chomu
zvíře
liší
uh
američané
vzniklo
naklada
infek
##ženého
nejlepších
slaví
meck
středově
trhy
dokázali
pokračování
nemělo
latin
nehodě
víd
##ische
james
píseň
til
olympijských
příštích
##znala
ata
studium
publiku
natáčení
lékaře
známá
86
moravě
postavil
špič
otevření
odpověděl
nerv
viděli
tok
##tisk
##bera
##cházela
vůdce
získáte
mobile
##ženy
mun
obrat
dohled
místosta
výhrad
běl
##tám
sexuální
##vedli
##mene
pravomoc
rozhodování
##stein
klasické
propag
##advacetiletý
pohybovat
československé
důvěry
serge
znamenalo
vie
testy
skot
tragé
##ania
opustit
inžený
sobre
skvěle
insc
##oz
tsk
##něná
national
tend
##čkami
podobných
vojtěch
##iss
mik
demonstrace
ambi
##tle
##dilo
federace
##mec
deleg
organiza
##brid
##počtu
##landu
instal
##leji
##ardi
šampionátu
kompro
pojišťovny
pochopitelně
trošku
##zeb
daňové
##hovat
zahrady
výšce
zdůvod
energii
iz
vrh
##jmu
pospíšil
intel
states
slovin
starý
operační
lidská
celek
96
osobností
úder
odborné
přiby
celost
podniky
##hodné
jour
slovenska
##roční
hasi
ron
##rátit
koupil
añ
blue
pne
als
##ván
varianta
sledky
zle
místnosti
čtyřmi
##alisti
chvil
konzerv
šedesát
dobrod
měsíci
školní
##nia
starosty
ská
dokumentu
nejenom
##ití
##čty
fondů
slibuje
fanoušků
kohou
záchranáři
nejnově
důležitý
dec
čast
známo
mezinárodního
pozemky
vzniká
kaza
muzik
kö
##enek
zřejmé
provi
viktor
vyč
piva
##díl
##rvá
brusel
jun
tradice
neuvěřitel
ez
autem
internetov
anna
rezerva
sebevraž
pracovníci
##anem
##stání
týmem
velvys
stadion
gt
evaku
leta
komed
gott
stránce
rej
dár
podílel
asistent
urych
necelých
menu
šíření
vyloučení
vyznamen
##čování
mci
osoba
definitivně
zept
automob
zpěvačka
objedná
vzbu
dka
veter
erdo
misi
zapoj
nemohla
utek
##ála
##duje
autoři
výroba
lesy
##gií
týdnech
demonstran
nasazení
vyzna
madrid
johan
nápo
read
##onů
členství
potraviny
fore
investic
pt
##anc
lodí
severozá
tlačí
##ning
##vence
ustanov
majitelé
aj
esko
nikomu
nedů
simon
ameriky
obe
##jíždě
počítat
pokutu
zástupců
##atiky
masa
##dky
produkty
kád
1000
divadelní
spal
zahrad
homosexu
každoročně
hospodaření
místem
psychiat
pohře
čtvrtfinále
říkat
zkrá
jedine
##sová
úsil
skončení
investiční
svědčí
ekonomiku
poplatek
investor
letecké
baví
uvedli
stejném
jazyk
ulicích
duchu
inscena
německých
according
postoup
##kují
##ken
box
dosáhl
údrž
slavia
seh
nesouhlasí
pryč
junior
##želi
##vech
##schop
juli
pán
general
##oba
cir
lil
těmto
samosp
vzp
firmou
rostoucí
vylo
aliance
státem
sau
zvířata
boku
řecko
čtvere
volených
přiv
takřka
nutn
odpovědět
vaší
seznám
nedovo
horách
objemu
##pky
##enst
nakou
back
uklid
youtu
dostateč
využívají
poznám
experti
variant
hospodářství
##ores
##tici
##jme
##ctions
odtud
funkcí
islá
kráde
poka
tenhle
zákonodár
baterie
místy
příkladem
plí
letadel
tisíci
sektoru
rozhlasu
##zdě
přípravu
ec
prezidentské
##liště
vysvětlení
##lanci
pozmě
egyp
pevn
pište
lidu
kilogra
dotaci
úlo
podep
hradci
vyjed
##pád
angličt
##redit
žluté
komentovat
##shi
vídeň
optimi
nádher
prohlí
snahu
přestěh
##itý
zaúto
krátké
zálož
stíha
beton
koná
arci
pochval
existence
zvyšuje
přelomu
vzhled
generálního
nemocnic
zje
nesouhlas
západu
mezin
##mrtí
partnery
##žích
nejnižší
nasad
nynější
vývoji
dikt
mládež
desky
novák
okupa
##ával
cur
hrob
setr
##ded
diskusi
##ün
redu
ovlivnit
vlaky
rudolf
plast
nahradit
doporučení
zrušit
stanic
spoluhrá
art
sek
tajné
kalifor
dceru
podzem
bolesti
skří
##lova
bavit
věděli
now
zpěvák
tomi
pozná
ox
mezinárodních
loka
über
dodavatel
##choz
prozatím
azyl
volkswag
lidové
tvaru
odbo
nabídka
zjištění
politick
žada
##lích
čerst
##tická
univerzit
##čnosti
listy
absur
##ývat
výstavbu
military
ztr
řídit
částka
nelíbí
vno
tren
státním
začínají
##zeny
kandidátů
vozí
městských
prezidentovi
kvó
##ezident
pis
chlu
bolest
##box
dovolené
pódi
iceti
tramvaj
kalen
obran
globální
kabel
studoval
korupce
##inem
##hují
sha
neří
rodinou
zadlu
zájemci
odhod
##telných
stála
povrchu
transak
##schen
##pětí
naším
pouhých
dívky
františka
##pka
##ftu
dcery
závody
jistotu
vyžaduje
dire
naplán
návštěvy
zablo
##ňte
##skov
založení
##inová
hů
obl
očekávání
rr
dobou
diploma
studenty
říše
ruso
gal
externi
esku
přístupu
mlý
mono
##šovat
nevyu
obchody
navštěv
politolog
déle
chr
ivotn
chat
zbran
fanoušky
jakých
rozsudek
náskok
##spek
listopad
fle
gh
chan
##mější
pohot
jihlav
domácích
##amer
vlastního
laj
cr
dávat
softwar
zkušeností
mrtv
##myslov
telekomunika
herce
desát
prodat
nejzná
neboli
zásadně
##iště
##žíme
zisku
edseda
neřek
efekt
nešťast
nebezpečné
##cený
##ight
atta
premiérem
jor
vědí
some
dvanácti
bei
ukazují
úmrtí
barok
parlamentnílisty
povz
nemyslím
soli
návštěvníky
bavor
saúd
##mena
##lený
##livost
kolega
investovat
náhodou
nejdřív
##zl
hrála
bývalá
univers
snažíme
##čkách
výrobky
čnb
separa
voln
sat
110
proku
aro
##žít
divize
##ovosti
čel
##ovně
mimořádně
oblé
kala
rap
dyna
skóre
##sech
exklu
domnívá
berou
nízké
záležitosti
narození
98
angeles
elektřiny
##cena
inva
eura
severovýchod
přílohy
expozice
partnera
austral
##pul
vyšla
##šených
jakého
požádal
sekund
odsu
instala
font
dých
systémem
zátě
simu
tlaku
zdob
zbraň
##pan
nesm
##střelil
turné
##řeno
ukrajinské
##nky
##ced
registrujte
kvalita
fotografií
zemanovi
duel
odejít
##pisu
vyjádřit
mistr
zvě
kombinaci
secur
##ňá
zaklá
nico
cestujících
vyřa
trasy
čs
185
vidění
##edu
zast
tahle
uprchlíky
kaš
zážit
nutno
vrcholu
londýn
vlastnictví
##nis
vypr
ander
##ds
posílení
trop
středních
##šenou
##žívá
trvale
sboru
##gs
ústavy
##vest
meziročně
změní
zimě
nabídne
postava
celosvět
ryt
světových
hašek
vstoupil
bezplat
odmítla
##clear
výsky
krásné
stromů
agrofer
tabulky
tole
unter
##vár
sand
souhlasí
komentoval
##řství
##advacet
zachrá
krou
vévod
někomu
vnu
esv
hledání
požáru
ochraně
populi
změnil
rychleji
dívka
žilo
ukrajina
vyplat
chiru
nefung
augu
jaderné
bohemi
##laj
typy
zlato
klen
vete
##tickou
iny
kucha
##stran
dráž
redaktor
scéná
minutu
prime
nějakým
účtu
světla
##ás
dětské
datum
##tických
interpret
##komo
útoků
sídlí
náročné
znásil
##íd
##liny
chemi
čelí
severozápad
moři
přijal
##tick
vlh
konkurenci
vyboj
nabídnout
##razu
##hol
zvlášt
vek
podpoře
##šer
jízdy
##mel
šum
podat
##rád
ostatními
neop
scéně
představenstva
naleznete
dětství
syria
linku
tvář
##tó
hovor
##cial
pozastav
##tain
okd
evident
návštěvě
european
1gr
vysvětlit
ponděl
liberci
nemohu
úče
ohlá
indu
grafi
paywall
světlo
konzervativní
140
##kyní
devat
ic
moz
##lební
kalendá
nadace
ovoce
šo
haj
uzavření
##ína
obří
navýšení
##ody
politicky
##wan
čtení
institucí
obává
kandidatu
rusové
značné
slovenský
poste
migrační
##ženým
##arů
najdou
komunistické
účelem
desetiletí
medaile
počátkem
##hové
šat
akcion
##view
paul
lau
vrátila
eric
##chta
jev
ohrom
gobier
skončit
##čeni
edpo
##ara
zadá
filmov
rychlé
státě
minulém
zásahu
parlamentních
nemovitosti
two
scénář
##ries
stsk
maximum
##letu
kompen
výkony
##chaj
letect
dozví
jindřich
myslel
okraji
trvalo
##noucí
přezdí
širší
výhradně
přesil
naproti
##wie
sep
vyčer
lů
##pravy
##klon
ceně
vzápětí
vítr
chybět
##pas
volný
prověř
doru
presidente
uvě
vlasy
úvodní
##ujícím
objevují
šim
zaří
střetu
sno
##tovat
týkající
ztratil
úsilí
moni
vietnam
ken
hvězda
zelených
žádném
dele
ipad
mld
oran
ukáže
zbytečně
cenou
perfek
záru
policista
dech
objevuje
naprav
##šské
zet
zaví
##lesu
musely
psal
hrozně
koronaviru
##ales
snaze
rie
čili
##rke
gor
##šlení
znát
cru
žádostí
bram
##ezí
korea
##ement
##šný
alb
souboru
břehu
vodě
poprv
##ďte
kancel
gólů
pozoru
##obu
##kly
##cad
##hrade
managem
ostrově
pomáhat
##až
hmotnost
podně
##grafie
babišovi
plzně
vlastnosti
ředitelství
vážné
nakladatel
odev
##míru
spraved
nil
naplno
##gel
pneum
odbě
power
vul
lup
radnici
vyvr
##arda
kdybychom
trestné
držet
them
ident
vyrábí
žán
dam
scény
lie
elektrárny
##ovek
tunel
jakékoliv
##jedou
jaromír
##sie
##áta
trestního
nikde
klientů
skvělé
navrhuje
nepřátel
turistů
starých
výhru
##pek
##26
zaklada
hradi
tisku
vyhlášení
klik
naděje
horn
cyklu
budově
ije
hub
##atické
pilí
třídě
situací
##mbur
pota
lak
auton
odstart
slovan
##stie
##čák
vyhráli
##cených
##mento
těšit
##és
rakouska
provozuje
výrobě
ojedině
brig
tabu
škr
##ovacího
rozsudku
##rar
varoval
amne
ole
mozku
diváky
##orizon
vizu
korupci
##čeho
##sné
dopady
##ářů
jeru
plný
atlan
oval
rozhodující
návštěvníků
odstav
opustil
digitální
míře
##zín
horizon
útě
účastníků
novotný
##vec
stolu
metropole
stopy
nepřek
##ouště
snímky
##ril
king
léky
terrorist
ré
vyšel
současných
##cas
##něno
##tář
erven
podniků
denní
atrak
voliče
obdiv
lát
##stají
##ádě
velik
teorie
##likvid
##átory
tvrdě
nazývá
jejímž
our
zastavil
##zená
nuclear
##razilo
alp
zvýšil
plnou
skupinou
##tání
smrtí
zabav
verdikt
venezuela
ostravy
hora
preven
partnerem
krev
zpe
obdržel
##myšlen
##ráz
##kist
nebe
členských
tar
vyslech
sociálního
rychl
##ráže
klíčové
##25
##gua
úředníci
mužstvo
pošt
detaily
chru
##xel
finančně
ný
afriky
atmosféru
národa
podstatně
hua
hoke
ligu
mechani
##90
vznikne
android
ředitelem
tambi
mj
##ffen
otevřené
poskytnout
laborato
překvapení
##arch
rezign
vrchní
uva
##nují
washingtonu
también
krat
podobnou
vědomí
ostře
zastupitelé
merkelová
městská
řekne
premiéru
##mala
upozornila
získání
##voz
určitou
podpoří
zev
zdravotn
kontrolou
hradě
into
převzal
materiály
příspěv
##vědomí
vlivu
##ween
pp
krajů
barce
dnout
int
komisi
strávil
dokonal
manželkou
tréninku
##tur
##mála
katastrof
vyhl
##rkevní
budovu
úva
odvod
ostrova
dluhy
##mentem
barcelon
skladby
dopravn
brut
standardní
##jek
lidovci
tváří
vypoví
##žitek
170
dna
dosahuje
dezin
kytar
hospod
lesa
antonín
propagan
rezig
##pech
rána
toku
legendá
připojení
běloru
dějin
kriminalisté
infrastruktury
klou
záh
hmo
##álka
volné
pravic
neuspě
liv
chran
komerční
##aném
komisa
##antní
klienty
##inger
magistrát
tlakem
dobrodru
trestn
taneční
zachování
funkční
gas
netra
##měsí
krokem
vypráví
vozidlo
referen
záchranné
dvořák
průmyslov
youtube
připraveni
škodu
dávají
street
##rátor
##štěné
zaorálek
##fikaci
##pila
##leno
objevit
silnější
##lka
podobná
##áky
##bka
##idu
wen
moskvě
##ther
vybral
kapel
##ovést
necht
tématu
lokomo
mek
##lywood
cc
##tického
církevní
firm
potenciál
vyprav
záko
dohodě
kapito
##bran
ikon
kariéře
ústavního
pond
##pů
vydělá
porovnání
odkaz
tématem
galerii
prochází
diskri
##itz
uví
##chají
##stka
úst
složité
##bru
investo
##board
ministři
bag
naději
kyse
gig
dienst
resort
samy
argumenty
cestovní
potla
vzniknout
ana
úvodu
zadrž
attack
napříč
pohár
sestra
termin
##stem
app
šli
93
dědictví
právník
##řová
zakázek
##slech
vyr
čechy
přítomnost
islámu
vset
zázra
využit
přijat
gobierno
shodu
##ml
sjezdu
představil
minulé
stech
vyplá
dž
těmito
návštěv
##stick
pořádá
janou
##weet
bílého
mrtvých
absolvoval
stížnost
belg
uzavřen
pades
proudu
wat
##šela
otevřel
bm
průběh
představují
půdy
franci
výroky
kvalitn
repres
first
##iner
doplňuje
zlikvid
##inace
##kladů
##skie
##áda
gab
refle
vladimir
##stand
seda
připadá
##tům
kona
##ją
týmů
mn
sval
obam
##ovanými
západě
##óna
revoluci
obav
opon
volně
vojenského
zbyteč
tereza
dvor
novinka
##sv
vedlo
vojáky
netradi
##pení
měste
uprchli
nemovitostí
ukázala
##med
game
##padlo
pur
považují
texty
střely
postupem
kil
big
cizin
předsedkyně
hamáček
phili
uživatelů
esti
##kládat
##bytek
časopisu
rozlou
thre
05
věž
hospit
lky
vlna
##hoval
pravé
letišti
institutu
vraždy
čistě
tax
dit
bari
##dn
##dák
##livá
úspěšné
kritiky
málok
##lerová
came
příprava
security
pobí
vnímá
nejú
nabízejí
pokusu
čtrnáct
350
bek
edchoz
rybá
orgánů
měření
témata
##rin
těžce
levn
růži
přispět
sklo
komplikov
france
##dku
budějovice
pozů
urban
historicky
jer
zprostřed
účastníci
nimiž
dnešního
##rot
obyvatelstva
tuhle
1939
bir
ofen
angažmá
##řských
jihozápad
zvuk
klady
přiví
ful
příčinou
systémů
pravomoci
sor
policejního
možno
díly
zákazníků
##17
pozemků
růž
parte
##chodech
##cio
last
##ate
britsk
union
domácnosti
erdogan
trase
hrabě
dálnici
ign
##ford
reality
osobu
kabinet
chovat
společenství
vinu
vino
prohlásila
##40
hosty
rybní
koordin
1988
hekt
tich
zelené
potvrdit
spolku
vína
##kle
##king
ledě
##lím
##io
kroku
dostanete
law
audio
##hrani
plnění
##šných
motoru
povstal
##leli
pověst
respond
##enes
##čoval
##bilo
##žný
osvěd
well
restauraci
přijel
zóny
chránit
##vede
medicí
obvodu
motocy
dokončení
neomez
vznikly
dajn
počítače
klášter
jav
akadem
gegen
deska
kvalifikace
nicm
komfor
historických
celková
bili
bárta
##forma
sim
označuje
kritizoval
wie
živoči
##xa
bydlí
koloni
werden
rozdělení
existenci
triumf
##entem
centrem
##žto
##stický
místního
##ějších
inkas
##asu
úkolem
cli
zdě
##ality
cast
zpomal
rud
##mách
rodinné
omezit
##ejmen
studií
penal
odhaduje
linka
blok
novely
pronik
##vaná
ochrana
půdě
třebí
řešením
zkr
##léd
ijde
kamery
##jské
michala
stolet
deal
vet
##rační
strategii
herci
##oden
teplota
tarif
zamil
sezon
trefil
american
bytě
mladík
manže
netr
sud
způsobil
používání
sokol
našla
nastaven
##šeny
##zím
nacházejí
přesvědčit
libor
domácího
##čemu
tituly
solidar
příběhy
##ovny
prosím
tradici
nucen
myslet
sídlo
menších
nějakého
důchodu
poraden
neumí
##gaci
tl
čekal
stavebn
uzaví
snímku
##bují
poslucha
síla
pachatel
konzo
certi
vyk
portr
odůvod
americkou
doplň
padesáti
oběť
kuli
##leny
sledování
tras
testu
odě
veřejno
usp
##tet
##šší
lho
##zela
usnad
autobusy
trasa
akcií
zpravodajství
motory
##islava
mluvčího
##cházeli
čela
přehlíd
územní
vypadalo
přírodě
uc
day
různými
##říž
uzavřena
zbavit
aleš
přinesl
nenávist
červené
krymu
šetření
ztrát
památky
seniory
iteln
bývají
##tef
vystudoval
##torem
##nese
stejná
##řich
fam
fat
europos
kluby
šta
zastavení
kritiku
nejmlad
třináct
##žná
otázce
siem
hollywood
dodávky
kabinetu
světová
ztrácí
ipom
##ovává
závodě
prodávat
propoj
průměrná
offi
původního
##dán
protesty
made
podobného
výstavby
turecka
korej
ujist
jesky
jasný
stálo
hodnocen
dostávají
ment
gri
desít
technick
maminka
slíbil
skan
národních
pozadí
cle
zma
##cil
věk
malého
ear
##sión
radu
get
zep
soupeři
varianty
putina
pákist
vrtul
##dejte
##row
huawei
objevili
široké
světovou
předmětem
pout
##lehl
britského
nastavení
ib
01
spekulace
půlno
celkový
interna
třetího
zůstávají
danie
předsedu
proslav
kara
procesor
otevřít
nekone
vac
1980
zakladatel
zaka
##odr
závodů
utká
tempo
samé
kandidáta
bankovní
narodila
##sey
##är
separati
1938
clav
přinese
1969
gólman
nezas
chica
volebního
##klop
##pádně
můžou
183
popel
městu
zveřejnil
##lily
lži
zně
##čků
##štích
##bier
nečase
##mark
výrobků
##eným
hovořil
##dom
##sol
vidíme
zemřela
bern
##hách
zuzana
zaznamenal
čtvrti
##enku
o2
dopravního
berlín
skat
měsíční
##tely
##tosti
postupn
koncertu
statistiky
##vaných
##lier
08
than
##buje
řeči
prošel
hli
imunit
střede
resortu
bojuje
university
odškod
kontextu
koncerty
kulturu
výšky
##chání
moskvy
def
pražská
##rické
uzavírá
##lenou
anglicky
nejp
ministrů
itost
merce
between
zázna
záznam
##ovsk
kampani
rakety
kombinace
jednotka
nezají
past
##ors
kub
schválila
vynikající
pokusil
vojenskou
golf
##rozené
duelu
ado
sledn
obzv
##tivních
reprodu
##itim
konzul
ent
neli
fotoapa
drobné
návštěvu
najdeme
vojenských
našt
daňových
pochod
snažím
##šejí
love
politickým
##skupení
komet
komor
justice
##ffe
olej
každopádně
polské
podr
zdn
přiznává
ploch
litví
reklama
terénu
nepoved
nerozu
nejob
přeč
srovná
##myslet
sme
jakékoli
mü
##idy
zvýší
skutečné
revi
jmenován
##kodob
zvět
jiném
nevadí
##šed
pacienty
jean
související
konzervati
zlom
##mid
when
namísto
logicky
předpoklád
##tig
román
varování
##chester
soukromí
fotoapar
pin
##ilu
setkal
kondi
novinářů
vloni
prima
mikulá
zub
rozhoduje
postupovat
fotografii
##ivn
neplatí
##áv
zlaté
##ču
přesa
pracovala
rytí
levnější
##oři
úspěšný
židov
sponzor
realizaci
dřeva
odstranit
pečlivě
obez
dopadne
důsledky
##oh
fáze
kate
kř
##ire
podnikatelů
turnaji
náboženství
trů
##bank
##tán
incidentu
gan
mos
mládeže
panu
nástroje
konstatuje
##70
podě
správu
látek
##telnost
důklad
vysvětlila
nestačí
odstranění
objekty
tab
novináře
##hradu
##řík
elo
likvidaci
vdě
brazil
vyjednávání
obchodních
poni
##padá
pone
summ
významných
snahy
mrzí
##sona
##čenou
volebním
zúčastnil
nejmenší
metropoli
##rce
vzduch
vyrovnan
léči
jon
##opera
založena
obžaloby
harry
##fí
modern
dávky
sklep
dokonale
neměly
##zenou
otevřeně
reprezentant
každoden
úrovně
metody
respon
mobili
94
brazí
vyhnout
starého
trestného
okolnosti
koda
dopravních
kosmi
##bude
militar
##mán
##key
čtvrtý
feno
kamera
##tica
92
##nuté
tabulka
##ły
karta
melo
nákupu
vzali
klienti
##ness
komunistů
##here
##šu
legislativní
##ream
nedůvě
indie
stol
ruskou
sobem
kaple
rychlostí
kapacity
##čující
##det
zdravotních
páté
srde
spořitel
##minut
devatená
##ffer
ludví
elektronické
silná
znepo
german
zdaně
rozh
výzvy
##kar
intenzivní
##brž
správě
brz
house
hus
vystoupil
spočívá
bloku
čtenáři
obrazy
radikální
vámi
##čtější
##rný
studio
siria
ohni
demokratů
kb
vyrů
programů
zachránit
dalšímu
svojí
tiskov
individuální
těles
##mper
opravd
perspek
chyt
písní
materiálů
##nuta
protestu
atle
narazil
vd
vary
spodní
terorismu
##lená
nabídl
ovčá
##nojmen
##cech
south
konver
stejnojmen
##nostech
špatný
kontrolní
změnila
jistý
wolf
nob
televizn
tého
přínos
tepli
toleran
icet
současnou
alena
schválení
##livu
odpovědnosti
nedělá
##divu
láska
koncept
spojuje
##šují
zmíněné
světový
obrovskou
rostliny
jindy
##rei
leader
##ando
generaci
inzer
pomáhají
adrese
kontrole
nahr
ztrátu
nezvlád
91
podří
veteriná
organizá
elit
##hnal
##ávali
markéta
legra
procento
##ánské
orli
hlasovali
zlepšit
##tik
pravid
plod
obvi
přistě
foreign
krabi
could
epiz
úm
ostatním
hrou
vzdálenosti
poslat
kontrola
přidě
téhož
produkci
významně
sanit
boe
litomě
zvolení
turecku
##rest
důležitou
komentář
vydává
nesmě
##ovn
lesů
jazz
##odu
známých
cítím
městský
mých
##ting
náhradníci
vydali
cyklo
islámský
##inov
##myslel
předvolební
vyzývá
amat
jihlava
automobilů
skrze
##bla
dest
střele
zjistila
délce
formy
reprezentan
úmysl
##ovníci
##ůh
choro
macron
soukromých
britská
schopna
end
výrobci
neplat
absolutní
jsi
cra
pavil
fondy
##itých
nejsilnější
mudr
nástupu
##mořské
nýbrž
diri
ženou
vnější
##deb
##dily
pokuty
zabezpečení
bratisla
zákazníci
nezbytné
jara
nemůžu
##turu
panství
ef
hran
znamn
založen
chová
porazil
humor
rezigna
##škem
daily
india
cokoliv
krajiny
nevin
postavili
hří
just
afgh
ipojen
usmí
myšlenky
fotbalový
zážitek
sokolov
slavnostní
blízké
trojice
volkswagen
hun
sleduj
03
turisty
green
bos
proběhla
objas
##níček
královéhrade
místostaro
tali
žalobu
stavbě
platnost
debut
##ör
zmínka
měří
panem
vybudovat
provincii
edm
mont
příběhu
east
spolé
rebel
večera
udělala
dnou
propuštění
##rám
kyjev
lékařské
připou
silnou
rozpočt
vzala
##kladem
zemřelo
stream
##vodech
rozhodlo
##ženi
publici
kut
zavra
kilometru
srovna
pivovar
dresu
##hování
rusk
spolupr
##laly
výno
skv
oken
##inku
dokumentů
významnou
parametry
odvětví
vondrá
realiz
dl
guver
přepočtu
lobb
best
výstavba
stejného
kontakty
šik
economi
sedlá
tah
nka
ateli
bratra
##ránu
info
bot
barva
celsia
úc
##tis
debaty
jídla
zvolit
hoř
spách
##venci
nesmírně
emu
roy
mega
černá
summitu
vyrost
##posla
dosp
rubri
příbram
africe
zkoušky
fotbalové
správce
helena
##zard
tet
##elle
plocha
##sau
termínu
##sea
šíří
podpořil
koncepce
##itá
šťastný
##skal
samotného
rozdíly
vlaku
zaslouží
povinností
věřit
kldr
jevi
synem
brambor
sledovali
celku
favorit
absolutně
##most
pozdější
zvyšování
dekla
##covat
nepochop
nostn
rozvoji
##škou
ase
zmen
##ña
centr
##atý
zatá
kalouska
##čině
displeje
novinkou
hodí
havá
1986
nepřija
usd
séri
odstoup
přej
našim
kir
zrušil
dlouhodobé
automobilky
##lot
atraktivní
pomohla
hyper
italské
prok
##kom
core
stupeň
##oder
dohodli
svědomí
volbu
sestry
tluje
psát
provincie
výlet
##číst
ochut
##padl
##its
karvin
lt
loupe
nímž
sektor
paměť
index
přivo
přenos
nastal
ošetř
##hající
##chaft
otřes
##váte
připravena
portá
personální
zvá
lich
kontrolovat
obrazu
eh
letních
větším
zákazníky
schv
skvělý
úprava
výzvu
boris
nezmě
zapl
planet
agresivní
##trol
zajiště
eurozóny
kvalifikaci
ulož
kauzu
neum
proběhne
tvorbu
výrazné
ukr
music
přišly
##kojení
fungu
04
klubů
06
segu
pevně
principu
mimořádné
##žkou
only
zdrojem
výhře
některým
fyzicky
##tné
ht
##ave
vracet
public
plnit
česky
každému
ova
zareag
nesly
##áku
##šíme
uvedlo
spotřebitel
leon
thomas
##mují
oct
architekton
israel
spán
hala
##ät
policií
pand
nevo
exminist
vyhla
tenkrát
jaku
třetina
zahradě
bush
north
základem
pohlaví
países
##pres
čtyřicet
nedostal
##šov
island
##armo
##ssr
##adou
##ści
herní
hoj
faš
velvyslane
bus
##gera
postu
white
užite
někam
signá
představitelů
rozsáhlé
hrani
zakázku
vypla
dijo
pamětní
##pé
##haly
##ňák
poloost
vyzkoušet
překvapivě
devá
smlouvě
omlou
filmové
prosadil
věcech
předměty
spi
vele
##stojí
##luvila
připoj
výbav
según
navštívil
učí
eet
spolupracuje
ibli
nalo
##chvat
teori
zaměstná
haly
okraj
##zlo
připustil
výdajů
efektiv
tábora
##ons
dnem
spolek
##gli
ministerstvem
ekonomicky
dorazil
odch
reprezentaci
##nictva
bin
klesá
tvorby
obliče
1984
##čr
zjevně
větších
dluhu
vyskytuje
petice
zabi
snažila
taxi
zdeňka
kyber
původních
osvětlení
mrav
předpově
duchovní
ins
komora
astrono
obchodů
japonsku
loty
zpracov
nepatří
neděle
pacienti
příjmu
debata
analýzy
pocity
told
videu
opozici
vka
table
##celku
vypově
ece
dosáhla
ekonomický
veče
výkonem
krym
každým
sochy
mike
něž
komunál
##émi
průmyslové
##ovol
cnn
global
štábu
how
podmí
stranách
##vního
archeolog
intelig
##ath
odli
##íř
reálné
##ille
scre
starších
zachovat
říkali
dřevo
potká
trápí
levic
centrál
tepel
hrdina
elect
přiznání
pracovali
boty
##éři
návrhem
trenéři
ultra
konte
působit
edstaven
intele
kandidovat
matěj
pier
lal
kouzel
bílý
nord
non
07
originální
##ador
zl
konečné
přeh
##miento
vesmír
nechybí
seminá
##ždé
major
prototy
któ
mínění
východu
pacienta
samotná
##ika
##mach
dobro
##zali
oceně
##ines
činností
##nel
jmenování
dřívější
přístroje
připravil
třetině
knihovny
zřízení
výzva
hosti
publikum
1987
zeměmi
sot
bezdo
sehnat
vak
thaj
pokaždé
##př
palubě
think
countries
běží
say
uvádě
wit
tís
usb
závislosti
##poslanec
smy
##ments
svěde
významný
hay
mhd
odpadu
pokusy
vojensk
mp3
manchester
kongresu
objektů
využil
žáků
dělali
##oth
hostů
pred
chlapec
##áka
legitim
pani
##orej
ukaz
internetové
##měrů
##ovacím
##dlí
tkem
výborně
variantu
##tag
propojení
##stitut
provést
armádě
záběry
vězeň
techniku
vzájemné
ck
imigra
symbol
zastoupení
prot
desku
capit
islámského
šestnáct
sobotky
nevíme
nora
odbory
paliva
busin
vladimíra
vhodn
vozid
levice
bílá
128
dveří
##kládání
jmenoval
dni
chil
přátelé
trade
kilogramů
nepova
št
opil
vlny
ski
řidičů
cri
##šná
1970
způsobu
platby
##jíždí
##ssen
##lib
cyk
severok
plní
zajistí
oprava
##šan
léká
sovětského
nelegální
vidíte
branek
02
registru
vyvinu
ará
rozsáhl
brněnské
otcem
zása
1985
podmínkou
společný
nejnovější
vyvrcho
přivez
zahájil
památek
jablonec
##zeného
ponor
pozemku
##cts
tabulce
##zením
stupce
takzvan
dana
nahradil
veřejnou
masivní
##tiku
kontejn
vyhra
vazbě
bělob
migrace
alexandr
články
##ovkou
##dec
reported
velikono
mto
##stických
##myslí
vyhý
posun
remí
svědků
prohrál
##káři
zbytečné
##ějším
třetinu
bři
stažení
pozměň
##šce
dáv
značka
mid
výhled
##jez
lubomír
ovzdu
##field
anglie
chři
chomutov
ký
fakultní
úspěchy
##sor
modelů
##stán
ubytování
historik
vybírat
hong
nespl
status
severokorej
vyro
radim
faleš
158
uvědomit
podporují
národů
procenty
signál
nominaci
specializ
vybudování
znalosti
##rokra
rychlejší
diplomacie
##žební
devadesátých
právního
přicházejí
vprav
zoufal
rele
standar
##bech
režiséra
##zdrav
boleslavi
portré
offici
žijící
opakovat
webových
dokázala
vším
skou
##óz
ue
povinné
##kos
vero
come
volbě
##eník
považován
alternativní
dopravě
zajišťuje
176
eru
stem
přihrá
vybrali
atmosféra
úvahu
##vice
dosko
##dava
mnich
skl
sezóně
fau
bay
ukončil
podnikatelé
internetových
kritizuje
univerzita
dozv
transparent
##bez
technologii
lidech
jugos
soudci
johna
silnicích
koupi
železni
uvedené
vlad
cali
zjiště
tramva
záchranu
představu
prezidentských
snow
##15
##spěš
detektiv
běžen
##gb
secret
##milion
odehrává
##ujícího
nákladní
sankcí
výsad
úředníků
organizátoři
zažil
##kládají
demisi
##kými
cítit
gross
diam
asii
náměstka
ukrajinu
fotky
přená
soudí
nud
##tus
rozhovory
srovn
reklamy
návrhů
dražší
syrian
##ns
držel
oživ
nesku
przy
##fikovat
period
elektrické
##slední
chlapce
přemí
ebu
hád
podoby
##instal
výhody
tin
##emiér
zajímavý
intenzivně
hale
rozsah
leck
dostupné
provádí
##kes
##gro
kud
zrcad
##meno
mateřské
léčeb
282
tentokr
emoce
sssr
stejným
##háně
prodává
běhu
daly
částech
obnovu
jazyka
muzeu
institut
grafick
efektivní
společenské
vypro
francouzského
požadavek
milost
diskrimina
##áš
##ration
##bře
svit
##ovatelem
věři
pec
poslaneckého
vytvořili
##tero
nastavit
íránu
povodí
##cep
##nální
178
hníz
setk
hydro
##bio
mezinárodním
kred
##prac
petří
nádob
som
mnichov
rusno
délka
anton
pravděpodobné
ig
bývalých
nepochybně
nevěří
publiková
desde
anglii
bartoš
jednomu
parta
1976
zástav
business
virus
##enám
jakém
##cování
krkono
dálnic
pádem
##nající
sezná
prosper
literární
bojů
anka
ochrán
informovat
postavu
##onem
##řuje
rovno
audit
##lte
řecku
varš
1967
postoje
evropském
##čkovi
zbytky
##dami
continu
filozof
šok
obt
kryt
zkuše
volí
##štejn
záložník
vedlejší
ivota
lásky
##yor
poma
proveden
lesní
jakoby
terén
ss
##loga
pochy
neštěstí
autě
extrémně
##ilem
dag
##12
##šeně
ježí
nesti
scot
podzimu
zmoc
nezákon
tora
nejas
bezdomov
##rnu
plic
jac
karl
nabídce
jeruzal
upřesnil
zůstalo
čísel
sklon
chovanec
##ceny
lez
komá
nezávislost
zástupkyně
poled
vyžád
mir
##ventu
krku
starat
nemaj
šoku
sma
1918
hlasov
posádky
metro
klesl
možných
spolupracoval
pravice
výhodu
##lam
pent
kurzu
epo
rozes
manželem
zvítězil
berlíně
##dar
poklesu
##zuj
##zely
did
##ged
hodinou
sloužil
sluch
##inter
učit
povstání
zdravotním
čtverečních
##omet
totéž
##biskup
pops
provozní
edpokl
stavě
##rant
##línek
kandidátky
krátkodob
líčí
pisto
##berga
produktů
nosí
hygien
##lační
protivní
high
přinést
získalo
minutách
nohou
probu
##pra
prodal
domácností
ford
fire
pokoje
misc
fru
##myslem
shi
pustil
cukrov
účely
##řádat
projít
léto
pánové
šancí
odpoled
korunu
celebr
tref
příjemné
space
jur
##nen
cerem
oblíbené
brod
pomohlo
##korup
odhadů
dokážou
arcibiskup
pozitivně
porno
dopadlo
nějakých
blesku
postavena
tchaj
komunisty
vůd
loňský
povzbu
čisté
rozhodnutím
##char
nejrůznější
způsoby
opravu
pch
počtem
##ain
1500
miner
vytvoří
##burku
evidence
vcelku
topolánek
parkoviště
milimet
mým
členské
odborník
##cházely
tepl
kapli
basketbal
ednictv
naznačil
cheb
přehrá
kostele
známe
dej
ekonomickou
jezera
projevuje
zákazu
##bour
sestavě
kritika
jednor
snadné
##yd
stb
plochu
##ňovali
alli
výstavu
duchov
him
rati
##ella
cestování
progres
##ngen
kdykoliv
jugoslá
řádně
inženýr
##ities
##baj
základny
kolegů
##nica
nejúspěš
zuby
##ira
nápis
dotazy
zlíně
##zeni
zneči
souhlasem
##emokra
stačilo
autorů
západních
guardi
zkomp
dočasně
nepotvr
lidsk
technika
obnovi
##ram
dělí
facto
tce
support
oddí
##gt
trávní
prozkou
budování
daniela
zítra
provádě
hranicích
armádu
fakultě
brexitu
##řský
##štině
wur
##fob
průkaz
##stická
náhrad
snížil
buda
portál
připsal
dnešním
letouny
chrudi
##bírá
apa
##řského
ruchu
příznak
ženě
témat
pronásled
haben
##istka
doporučuje
předčasné
záležitostí
##rij
bmw
obzvlá
##čkové
hybrid
vedly
ovan
vrtulní
cia
sank
vyjadřovat
správný
##tico
vstoupit
vstupenky
věznice
##ased
tyhle
##pustí
cn
minus
internacion
try
skladatel
složky
člena
band
##rio
daje
drama
##zia
vídni
marka
topol
normálně
asie
příto
telefonn
##žď
vrátili
hovořit
##fun
strý
##blo
##jezdy
##řených
nejpoz
holo
obu
zapojit
dcerou
##load
nedalek
tržby
##sive
brány
váží
nezn
nenech
politikou
##žnost
tratí
vybraných
dohlí
oslavy
##16
vyrovnat
veřejnoprávní
dílem
komplikace
##mono
pse
##stického
##vím
mobilu
##ženě
koliv
užívání
databá
##kázala
##ovníky
##produ
strážníci
vyslou
strojů
prach
byrokra
znam
názvu
ozdob
planety
##zetí
uplynulých
##uel
němec
while
iva
přeci
ord
##cená
##luvy
modré
plamen
příspěvku
ztratila
bord
1960
činy
úkoly
neup
požádat
respektovat
vynes
jejímu
nerov
zjev
přesvědčení
vůli
technických
svědky
českými
ztráta
tota
nepřes
kopi
nymbur
pátrání
rally
obět
##rozí
##identi
motoro
herman
##inen
vojsk
manžela
umělecké
kapacitu
##loni
obchodech
##zájem
architektury
pokor
reaguje
splnit
vyhlíd
agentuře
výhra
d1
volno
week
##moni
##mocí
pochlu
wird
použil
sobotní
1944
svědectví
následné
veselý
eston
ari
vysokoškol
pravideln
jedině
číň
doklady
plak
studii
turistické
nasaz
mehr
control
dolo
barvu
řadou
stabilní
##stější
přepad
force
tvůrci
##žším
nevěděl
karlových
podstatné
1972
referenda
sezóny
trutn
libe
nekomp
myšlení
##vel
see
hledají
statistik
jmenovat
liban
popí
sezona
##dací
zatí
ignor
tko
##dica
1979
necí
##hern
čtrnácti
komunální
samozřej
##sání
luxusní
##cházení
vítěze
pokuta
nice
##gest
drs
výpověď
ústřední
intelektu
newyor
maro
##nova
tvorbě
maďarsko
fakticky
1981
profilu
minimum
ferdin
útv
##ppen
##dii
ohroz
zvládnout
určen
přejmen
##silo
##lovan
1982
vyspě
##erto
uhra
modi
##ička
izraele
sotva
splat
činů
those
vzájemně
požaduje
vlevo
těším
bát
mezd
##äs
doufá
skládá
##ij
wik
uskupení
vystoupí
##něnou
manželky
spokojený
civilní
##23
poměru
podotýká
životy
##anější
silou
fyzické
life
record
navzájem
vesmíru
minulost
##ény
považovat
zum
kamar
##avý
komedie
nego
##matu
chápu
suverén
uvidí
##čník
náprav
protikorup
shodli
tábo
pravou
automobilka
kyje
podílet
1950
doporuč
instalaci
vzrostl
nouz
bezmála
pochybnosti
##kovými
přib
##skočil
zazní
bělobrá
obecn
životem
zima
gold
fronty
sú
kory
##livosti
bouř
ileg
##átem
kosme
zemědělské
uspořádání
zlomen
interiéru
dienstbier
projevy
##pie
##koru
navazuje
odposle
demokrat
paradoxně
žili
##tro
enter
španělsku
sit
##ques
bezpečí
nis
zdůrazňuje
##řská
##šeného
vedli
nutnost
soubory
okolní
obsahem
čun
##dia
zůstaly
biolog
válkou
1942
jmu
radí
drogy
střediska
##enství
kulturních
elegan
ekonomických
reforma
1983
pravděpodobností
trestný
navštívit
jízdu
potá
##rej
##práv
záhy
sind
odmítli
konfron
##lela
administrativní
akor
zur
gram
šar
snižuje
královské
dialo
amaz
rozdá
nechtěli
původním
##buds
prosazovat
qui
##cenou
zaz
racion
ublí
##řetí
vyná
bara
spart
##sus
komunismu
právem
360
novými
katedrá
##station
možný
hradce
patřila
bad
flu
##enka
adem
vládních
konkrétních
gaz
blíže
promluvil
pový
dovoz
##dor
změnou
děláme
obrovská
reprezentační
smith
lost
normali
pokut
výhodou
##alismu
lka
platů
zneužití
přistup
dějiny
long
romana
##hledy
##átora
##itisí
##hlav
programem
léčbu
xbox
masak
ukaza
##isen
##dla
časy
ombuds
místostarosta
případem
adap
front
uživatelé
kapacita
##gers
europoslanec
##tev
##áním
miliardá
zadarmo
vp
##nostmi
oslabení
guer
during
nehodu
chel
selhání
bližší
tlust
stupn
##fra
##rák
##nést
feli
sparty
##ceno
syrské
summit
austrálie
těho
shou
oblo
obraně
vteřin
##ralo
pál
##test
zapomně
účastní
přítomnosti
zavr
nezam
hlasu
portfo
strachu
##kovo
starostka
zmír
ihl
dozorčí
zobrazen
prohlídky
sekr
humanitární
way
trzích
kritice
nevidí
guverné
těhoten
vs
odchy
##nový
průměrný
##hren
západo
otázek
nedostatku
závěrečné
##něně
pohybují
lož
anim
equ
sbírky
společnou
1974
nemovitost
řadí
žiž
andr
redakci
spojenci
defi
invali
klíčových
##řiz
kuchyně
prostějov
poplatků
vyřad
##esh
výrok
meta
nezaměstnanosti
mobilních
##cl
provozovatel
chodu
pokusí
beze
make
favor
ustanovení
pojem
claim
jitka
perman
1964
##tak
nejrychleji
forces
##kovu
maďarsku
nerozhod
špin
base
plasti
##unda
mistra
##třebí
partnerství
obnovit
přál
následovat
televizních
##tiky
nedokázal
1975
zájemce
##kovali
125
starostové
##els
1973
výpovědi
fungují
##mén
nepomo
blaho
tna
##ęd
ensk
čelit
novelu
prázdn
míra
kláves
nahrávky
opery
soukup
##ound
expan
vrst
znění
očima
kompon
ryby
krajsk
##éma
##logicky
československu
dosahu
rezolu
neviděl
nevá
##ald
kuchyň
autobusu
úsměvem
##tko
##ister
stavy
vyšetřovatelé
respektu
reha
charakteru
uvést
##áků
zápis
porodu
oblou
vzkaz
brzd
##rub
osad
hlo
zahynulo
dodr
celých
řecka
lucem
sníh
pta
pochopit
sak
pekingu
sate
osudu
chrání
##ville
iphone
zapojení
mládí
##bach
filma
##enční
jna
##što
##korej
turisté
lokality
moji
pozornosti
aber
zvýšila
podala
skrom
zapotřebí
věže
službě
dávek
nátla
##tivu
velvyslanectví
přemě
memo
vůle
sekce
pokoji
sekret
regulace
sea
víno
dostate
dámy
průměrné
##ložka
maz
##jk
závěry
okolních
1978
režie
nagy
zvolili
soudkyně
člověku
olympijské
vytvářet
kuchyni
linie
pořídit
vezme
alt
odmítají
istan
studovat
jednal
fli
chodn
tráv
##deo
vzděla
konala
civilizace
bůh
významným
##win
stupni
brankáře
dep
fl
počty
##19
upe
##rick
nebojí
americkém
těžší
vymá
záku
kladen
rychlý
##inaci
prvků
##lými
##inten
hmy
úkor
samostatné
izraeli
dobrého
bpp
sná
chin
trvala
módní
litrů
západním
moskev
##skar
andrea
##ňovala
tí
ely
otrav
občer
##řenou
fajn
firmám
zdanění
##cji
iniciativy
horá
octav
kosti
chova
like
ovzduší
##put
rozt
situa
prz
zvon
##adla
zho
nedokáže
cap
proch
hitler
zahrada
deli
postaví
realizace
##kovič
klaví
šéfem
dagmar
ezna
##mund
výborný
rekordní
##řát
okresu
komentáře
klesla
utí
vánoce
celkového
##zínu
motorem
##iter
určené
##rovo
jihokorej
běže
##kilo
##čela
portálu
návštěva
pojetí
manaže
migraci
podlé
lang
nejznámější
vysočina
tříd
barokní
metal
territ
vrat
francouzská
diagnosti
rohu
nejza
bitvě
alleg
alexander
nejpozději
veronika
hý
ton
##gl
vystupuje
přemy
zabil
##skij
##žných
marně
##ózy
##anech
ervna
utrpěl
##sce
renes
místním
priority
kód
službách
jedenácti
jarní
##18
změnilo
nezaměstnanost
family
##něného
vojenský
vybere
podobným
zlata
tehdejšího
osvobození
##bytku
##wski
kober
lese
prahou
vraždu
koč
##dělování
fotbalu
odeb
##reo
inova
zamít
útvar
novod
maked
suveren
vyrábět
konn
head
tenden
loňské
přenosu
zále
trp
obnovení
elektrom
obvykl
dodržování
good
vysokým
hrdiny
mužstva
petici
dialog
vysíla
příspěvky
##áci
zastupitelstvo
atom
počá
##tivé
179
pirátů
logist
nechtěla
dun
pochybení
pojišťovna
krva
autenti
tržeb
filoso
prestižní
občerstv
sledoval
howe
asad
##ecé
vašeho
##inovou
finančního
vyšších
obviněn
uzavřela
expertů
##jád
říkáte
##rante
##tah
stahu
##éria
ovlada
rozhled
volej
přinesla
vydrží
stvo
vedouc
klienta
odborníky
energetické
žalobce
##něme
kvit
pachatele
akt
##hodil
nástupce
agentur
upozornit
řá
##adil
##mět
dopravce
čtyřiceti
trestním
smích
volan
##ktech
##žnou
mané
##luk
##kázali
reci
##aut
##žnější
americkým
pohledá
rozhodnuto
vpravo
##dan
inflace
##čata
maria
zneužívání
mex
gsm
##ück
nepřízni
zpřístup
##tních
##tori
##hlou
padl
zdravotního
cukr
vladim
sportovních
samostatně
take
##kované
osmnácti
ambice
způsobit
beru
barevn
uznání
size
radar
žádat
zamez
##mové
nároky
prohla
zbytku
čerpání
přenes
obrovsk
##itelné
chris
hodit
zvykl
nechyb
##organi
majitelem
konop
hazard
should
##oda
mercedes
bezprostředně
kolu
španělsko
velvyslanec
nakladatelství
##číme
proběhlo
debatu
soustředit
obchodního
vsad
hráčem
prioritou
princ
ču
volbám
náhradu
panuje
litr
1971
nemusel
##rozumi
##ful
vzpomí
##sz
sále
##idel
##cow
zkušený
aqu
zdravotnické
řetěz
zemanem
ferra
peake
rit
směje
chle
léků
developer
ehled
kapes
lec
problémům
obsaz
konzult
kratší
ansk
##pustili
gast
republikán
baš
1946
##icko
ostrovy
rena
viny
vykou
starou
přirozeně
vydí
##nku
srd
implement
silniční
recept
komunikací
sympat
ach
úvěr
šká
stížnosti
##vatelem
babišem
telefonů
nedostatky
probíhat
testování
vojska
vytvořila
bance
záv
volného
připomenout
osobního
koši
louis
faceboo
znají
acuer
varech
style
patrné
investig
ines
rakouské
##plá
objevilo
1977
nahlá
rolí
call
pěkně
narů
podvo
stoprocent
předchozím
největšího
vznikají
blog
čoko
lehké
zastupitelstvu
přidat
dvacát
##lary
matu
pasá
beat
korek
kůži
vzdal
objektiv
##stant
teoreticky
##byl
slovenského
very
kořeny
poptávka
judr
zůstanou
zajímavá
pozemek
nespokoj
kůže
neopráv
kolech
##imb
středisko
hvěz
vzpom
##ove
statut
ránu
poskytovat
##večer
váp
budape
dvojici
##dlo
hraní
nutně
slovensk
skep
příčiny
uživatele
##gg
konání
ade
krav
důležitější
1949
dor
lor
jízdě
přesné
opatr
donu
expon
europa
kým
##dio
##brali
křídla
##dím
vzestup
úplat
##bohat
ocenil
zveřejnění
sídlem
schrán
radka
lc
pravidelné
zelení
zniv
nan
obtížné
##xt
hájí
isp
##inový
##sticky
archivován
stůl
asij
turecké
zbývá
vědom
peru
kade
tresty
nejvyšším
chra
rozšířit
##clav
stíhá
nedostane
nejdra
plánování
nazý
symbolem
fit
##adas
disponuje
znemo
##tivo
padlo
subjekty
cílů
liberální
##eném
schůzce
zopakoval
nedávné
podílu
vní
vize
britských
tunelu
přirov
obal
##zii
výpad
šestnácti
celkovou
indon
pravdi
recenze
cituje
being
dobrovolně
designé
need
příslušníků
zaregist
konal
##louho
finali
##nané
náraz
bonuswe
nevidím
plánované
čerpa
nejtě
týdně
představa
teku
kapacitou
kláštera
noha
##ovská
nedokon
hc
lokalitě
march
##istan
cris
##ejmenším
inteligent
rozto
charles
slevy
proprac
wall
pomohli
odporu
deutsch
přiznala
novinkám
##řiv
pravdou
##medi
vestav
trasu
langer
páteční
liberce
spolehli
fakta
450
zaplav
gazdí
uznal
znale
přinejmenším
dama
playstation
##craft
jones
partne
pomal
tim
km²
zavést
komunálních
podepsat
##tooth
stock
připravili
modu
krum
espe
mandá
zpro
kontroverzní
volebních
ther
slabší
přímě
drži
okresní
einer
optim
wan
závazky
rozho
##zdvi
říkala
naučit
##lostez
##cze
##bility
reportáž
1941
##lií
evange
kandidáty
##jelo
řsd
##líben
##cing
mafi
##ema
nemáte
pasaž
činitel
estado
vizi
reklam
cyklostez
lázeň
útočníka
zek
vyplatí
registr
175
přijala
cítil
##bylo
adav
spadá
##roun
primárně
zmat
panny
cé
chut
##razily
napadlo
##ňové
obchvat
##átoři
252
stole
hrozilo
##anci
přijeli
ptal
znaky
spoleh
gl
kousky
londýna
##padla
petrem
vyznamenání
neudr
severním
plech
agrofert
##chl
nejist
dejte
sara
nedodr
prohráli
gil
sali
komple
karan
dramatur
vrati
miliardu
rozlišení
##skl
napsat
##ačty
nezí
intenz
since
očí
limity
kultura
##endo
odvy
snižování
company
stavebních
virtuální
stavebního
177
žáci
bluetooth
fuer
due
jemuž
ustav
##lab
pobav
slyšel
slavné
skli
dil
zabrá
##stickou
odjel
akcept
uráž
vědy
tajemství
##hospo
zko
plát
ovládá
poky
soc
těžký
cokoli
napadl
zaznamenali
uhel
veřejná
registrov
zastře
rozmí
dostupných
nadšení
prostorách
měk
poradit
roberta
určitý
neustál
poci
nevhod
madu
novému
olomouce
political
obžalovaný
kolář
##atlan
ray
licence
##ií
znojmo
stránek
svobodě
dočka
meet
bohuslava
šve
##pustila
nezd
janem
cizinci
##udky
siemens
dám
##valit
ony
volb
číst
migranty
desta
##štiny
ploš
novodob
následuje
akademii
##the
legendární
dobrým
prevence
automobily
annou
základním
##ající
vodních
uvedení
odvolal
žijeme
pohodě
sourozen
##sé
čekali
šikov
oranž
úkon
odpovídající
vrtulník
restaurací
byznysu
##halo
příčku
myšlenka
výrobní
klesa
gla
cukru
malým
nedělní
pořadatelé
prze
fbi
padu
##sov
vyrovnání
zdálo
letounu
actu
konto
černého
covid
ozbroj
interiér
nedaří
chelsea
##heim
dozvěděl
obý
vítězem
vyžá
modernizace
budějovicích
##tej
##hám
trénink
##klí
diskutovat
ironi
dlouhých
kina
turk
lince
##jních
přiblížil
závad
##brala
zveřejnila
tvrtek
fem
kope
ochotni
zůstali
sledek
linek
zdán
tej
rezervace
mála
zaplatil
nález
##tivou
výběrové
boeing
##gó
památku
mku
povolání
##řejí
stromu
francouzsk
poslech
nemuseli
##cara
rny
wag
nezů
##lostech
viceprezident
nutnosti
veletrhu
bohemians
trap
zmizel
sociálním
spojit
posádka
tomhle
ekonomice
přechodu
běžných
motivy
občanství
metodi
kuba
natočil
matkou
uzavřít
ploše
žď
vyloučit
obsazení
jediného
##covou
aktivita
sdílí
výjimky
##váním
pyt
zkusit
přijali
##žijí
středně
multipla
příležitostí
projektem
nemocí
nominace
uvedeno
dvan
vst
předchůdce
potrvá
zodpovědnost
vyří
##gov
place
valenta
##kaj
ceremoni
odehr
fial
dohodnout
##vič
plná
zabezpeč
##ppe
jure
ondrá
##skokatoli
psaní
##uri
třída
insol
brý
##ivně
hoře
pravý
dokumentace
příznivci
monika
enosti
##dělal
##35
nařídil
boha
##cením
morální
usk
##fore
##zaných
reálně
##ray
mky
pobočky
náčel
fed
italský
however
postupy
nejedná
##obchod
kolej
pojede
odvahu
jihoaf
ato
##ovod
pono
##leni
palm
obsadil
zlatý
veterán
##lesk
umělců
zasla
zjistí
bezd
celostátní
kerami
domluv
řídil
značek
zahájila
stěž
##fc
sjed
central
osmnáct
team
##álky
jednoduchý
ericsson
insolven
##atik
magne
steph
##erung
schůzky
konstrukci
##redak
##mož
přizná
dětských
designu
live
##padesáti
nefunguje
slavii
fou
japonsko
buňky
sign
##vač
zemět
vyvolat
líd
eska
obecné
jaderných
svate
kilometry
přímý
vitam
depar
prolo
kolektivní
inti
preci
zemětřes
##rí
tajemník
kolín
indii
kovi
odně
modelka
kompromis
úřední
clo
stěny
rodinn
slavný
domnívám
##lička
započ
##rd
holči
uprchlíci
##vlá
vysokého
these
schen
jágr
nejslav
technicky
ambici
bohaté
chirurg
zata
samet
poměry
nenáv
nesprav
kontinent
dílny
##figu
mistry
hut
poznamenala
komentátor
švédsko
konkurenceschop
světovém
dodavatele
reakcí
##dh
105
hnízdo
pustit
karanté
učitelů
moun
nemění
líčení
tay
##ll
pokládá
##rují
##ňme
slovenská
ztvár
vítkovice
fotba
padla
švýcarsku
##povídá
čínská
holeš
osvobod
struktury
arbit
koruna
nce
nevad
rodičům
okamžik
zahrál
##esa
pracovníky
drahoš
##tečním
textil
osobním
tržní
##cup
příjezdu
zanech
učení
paláce
puk
obvinil
klade
probíhají
lázně
setu
##ghts
římskokatoli
##sní
##maticky
podílí
líto
plnohodno
čemuž
havíř
milana
plateb
ovládání
saint
interview
zvěd
lisab
##bová
##kilomet
kartou
consu
kredit
ohra
nereag
gang
hero
scénu
posílit
league
vsi
mýt
příkaz
hne
platu
pozic
ekonomického
obsahují
obhájce
pracoviště
vas
##ičky
missi
příslušníci
mužem
ese
reli
souhr
divit
boží
řeka
vyply
špatná
lokalit
vyhr
##fan
kouření
trn
master
setkat
dráhu
vylu
skladeb
složek
těhotenství
zapomenout
##stel
sazeb
dosažení
vlnu
volbou
##eden
destru
barran
odes
##hry
edes
zloděj
vzoru
pardubic
##ship
čapí
neskon
statisí
minimali
ožen
tragédie
dospělé
lucembur
prošla
nejbohat
paříže
rozloze
němcová
##óza
táboře
dějinách
vejce
bila
##fl
titulů
apel
handica
koronavirus
heslo
vou
zlatou
nechod
změnám
zločinu
německou
rozhodnou
daesh
pej
sousední
135
informuje
dělní
kámen
nejlepšího
nezávislosti
##žely
potvrdilo
podotkla
doprovodu
comu
kok
vladimi
##inásob
##raj
realizovat
vyhraz
rodinných
1947
kulo
mix
výprav
věříme
years
##logie
##pak
arti
##jíždět
ukry
manželé
##malo
##řitelné
derby
##nostem
baru
sester
##čítání
standardn
hmotnosti
rekrea
pyro
nur
vojenská
sanctions
čínský
dělo
##římně
zohled
dort
store
upravit
očích
1940
jednodušší
nal
##želo
šper
automobilu
zásadě
lce
významu
divu
antoni
##žívají
download
cigaret
dívat
prudce
##ectví
příchodu
##ación
dopise
problemat
##rough
##ánek
nebudete
##sible
vstřelil
kandidáti
určitých
ukraine
##tnou
chodil
osobě
dělám
heli
ponech
zmiňuje
metry
havar
ice
některými
veřejný
palác
moham
gabrie
běžný
##četl
speciálně
##burgu
kova
##ator
porošen
##kovala
lež
únor
toron
sestup
výpla
doně
předpisy
východo
##sport
normy
upřímně
šéfredak
využívání
101
obrana
zasad
tramvaje
pronaj
moste
##eren
lotyš
prota
konkurenční
půlnoci
příjmení
spravedlnost
fand
kluk
fale
hrozbu
vydavatele
az
marat
cíli
potok
además
bure
##chové
němců
tablet
potraviná
autonom
##ovanému
##dc
##avé
240
porazit
toy
##clu
reklamu
##itativní
rpg
soudního
blues
sběra
##cií
značku
##nar
bělobrádek
počkat
umělci
majiteli
zavraždě
nein
shroma
np
grandsla
##erem
protoko
samosprá
##pala
hledali
activ
prázdnin
kvalitě
odborných
vyšpl
bry
nahradí
propou
##alosti
##zujeme
rozumí
belgie
zátěž
albert
zastával
fant
vědecké
##alán
dařilo
těžká
citliv
##ante
osíd
##říme
poskytování
danou
sloup
skali
ženám
##ses
rakuš
even
##hráli
rukama
potřebovat
skutečný
##nuly
zisky
mocen
katastrál
vyrobit
##rova
vají
dnu
##ovanost
přeje
nemal
procedu
kolegyně
klobou
vyko
##činy
##ric
dlo
matku
1965
učeb
aplikací
procházka
názorů
squ
stranami
vzdálenost
demonstraci
nejmladší
vybrané
nastoupit
líp
hrů
evidentně
odvoláním
trestných
podlehl
##skut
základnu
nezávislé
kameny
##řele
##enice
odo
jasná
sovětské
stek
havlíč
kopce
##pel
##hraniční
intera
ticho
kvalifikov
##stách
##ologii
komentuje
výlu
karos
faltý
zbývající
krizí
předal
šaf
bundes
dži
##řina
vyrazil
nejbližších
including
jakuba
černou
anci
##hře
zvýhod
rake
##mák
učitele
spolupracov
literatury
ukončit
projde
ranní
spadl
progn
akumu
neřeší
kores
dmit
##onie
papír
##ouští
##žních
komplexní
absurdní
nějž
##ug
odměnu
vodaf
předloni
cirku
ria
##líka
vsetín
nosit
ženské
zákazníkům
vyjmen
defense
jistou
ubytov
zorgani
kroků
vesm
pěší
známky
partnerů
uplatnění
kladno
##gia
lídra
porušování
##nička
tepla
citi
zapar
nobel
nejdel
regionech
develop
##grafii
stahujte
větru
grav
nedot
nechybě
jednoráz
cizinců
mk
terčem
rot
##žby
pentag
ervence
3000
potý
vyčís
spekt
sídliště
##pet
##čany
svobodné
ambu
fix
follow
atp
vyn
kras
zkuste
1966
vytv
střechy
management
okup
hostu
sekundy
vylé
pracovního
operací
##rong
million
slavn
dut
nehrozí
##jízd
kuf
těs
neov
teroristické
potřetí
levé
##ěla
otevřený
##šk
onu
##lování
##ht
##šim
mhz
sadn
bazén
záměrně
dostupn
klimatu
##tika
1920
pravidlo
klimati
##berte
##inek
sněmu
volebn
kubí
vyjít
nejvýznamnější
brown
##álil
zahradní
místopředsedy
##gol
rezignaci
zre
kulturního
poslali
##sáno
peli
souboji
sebevědomí
uvažuje
##niden
##lety
hřbitov
##inout
výstavbě
pátý
##šedes
pocházejí
získaly
zdravý
miloslav
sady
tomio
anket
známého
##láním
prozradila
office
volič
svaté
##jna
poukazuje
podoba
retweet
tvrdý
rci
přispěl
přirozené
impul
mzda
pus
ovčáček
##tily
rozpor
##nský
nainstal
ovali
oblíbit
čtyřikrát
honor
předpisů
fren
taktéž
cenzu
##ovné
vyrovná
aspek
licenci
vodo
nemluví
úspory
projednávání
##adouniden
realita
jízda
1953
vlastimil
ruským
##isa
týkají
rezerv
nejspíše
bělo
energií
vyvolal
donut
tváře
farmá
sníží
kritiz
dostupnost
bitva
vyzdvi
##basti
výrobců
##ecké
moderních
##sos
fotbalista
elitní
turkey
##ية
interes
pardubicích
otevře
kohout
##áni
know
poskytl
knihovna
##dli
kusy
1963
scénáře
##átorem
nepříjemné
galaxy
živé
zákonu
dobeš
tradičních
definitivní
vzdělávací
##dáme
kurzy
porota
dvůr
estadouniden
zeptal
náchod
##cket
alž
##hoty
vítězů
##bot
koš
speciálních
bitvy
mapu
izn
ostra
many
týkat
poločase
ošetření
seniorů
něčím
##urn
městskou
regionů
žaloby
##zas
fyzik
připravený
způsobuje
##card
záměru
zasko
placen
negativně
ehl
##hlédnout
psychicky
policistům
ferrari
vysvětloval
##áren
tvořit
odci
dri
bezpečně
nů
##jam
##jezdem
embar
nejh
##cla
nadmořské
neje
##tním
puede
chaos
tvrdit
norte
kalousk
neoh
##čními
nezastav
písemná
nepamat
nejrůznějších
odborů
bakal
##lari
##nych
hodou
krajská
důležitých
pomoct
edo
nezbývá
viděla
střelec
##slou
##zla
platební
vybrala
nezlet
austrálii
odraz
přesun
přijímat
via
vav
##avské
čaj
přímou
##bol
připravené
kompak
naznačuje
štaf
ema
pohoří
spek
ust
celým
litvínov
##sána
dokazuje
commu
##měsíční
##vého
dílů
místopředsedkyně
##ďme
předmětů
road
út
##luvě
##kupy
disciplí
pohl
záchranářů
lokální
robu
august
nedostateč
cry
##rního
příslušní
bub
třinácti
překonal
výrazný
dó
##žující
baj
biat
filmech
úpravu
alexandra
polé
vědců
##iler
##ovateli
ozbrojených
usilovat
##kolik
750
1961
##asi
návy
jičín
220
přímá
neur
chů
pomysl
přidává
##lák
sklada
mapa
obcích
husa
potvrdili
suv
zachra
odměny
donalda
##ßen
roh
peking
snímků
foldy
páte
prezentace
předsti
závodech
volání
hradn
campa
ritu
##cími
osvě
principy
##vení
člověkem
##něným
trenérem
zvyklí
mah
laun
obsahovat
stropnický
visl
udržení
nalézt
capital
zaměstnanec
občanského
jednáním
dorazila
holky
cupu
ral
##čina
##bt
kritéri
service
polep
##jec
arno
malíř
přijede
##chla
účastníky
pátku
integrace
##kovský
##bon
utekl
půli
čínského
##menty
dvora
nikola
##uda
podali
operačního
##ňat
staat
šaty
##45
ay
hongkon
##sions
kořen
##šeným
běh
beroun
hody
takzvaný
amatér
ostu
výměnu
##mátu
british
složitější
manife
stanou
ruko
pová
##umber
zhu
omluv
jednost
chystají
jízdní
fro
sazba
vyvolává
rozměr
border
straš
nacionali
námit
zásoby
obory
##pes
schi
provádět
##vátní
kanceláří
věr
jeřá
ekonomická
hlub
židovské
zelená
ratha
##cházejících
nebezpečný
dová
dodržovat
usm
provedl
##üt
hamá
šk
soudů
mém
živí
##hlu
margin
důkazů
einen
##randu
císaře
mysleli
##kovic
tvrdé
##počet
zš
telecom
poslancem
zraněných
šesté
představila
conse
nabízet
##životní
oldřich
2021
zastávky
svátek
desce
čínských
třebíč
zrek
stáří
gua
předeš
kanton
květy
1956
stři
plánů
komplexu
##rs
nestojí
láká
1962
příště
kontě
rodiči
hin
##hei
metoda
unesco
pocti
##cks
produktu
kardin
řecké
zavaz
přija
málem
zaměřuje
##sdorf
ztratili
##rey
chorob
jádro
připravují
republiká
bite
válek
účastnil
icetilet
zpřís
učitelé
přiznat
oboha
problematiku
karolína
jednoduchá
##ložené
hillary
městy
arsen
podpisu
prodava
souboje
architekta
schůzi
zaznamenala
sdělení
aneb
stnanc
nastart
##lus
london
games
slavie
bratislavě
divok
snahou
1943
pozval
zkontrol
recy
okoment
##mt
hesla
románu
zava
německy
prostěj
pd
označila
prohlédnout
charakteri
parkování
##ال
jižním
komunity
vybu
##měl
nízká
fronta
nečekaně
válečné
kolektiv
##oslav
image
španělska
přistěhoval
veřejném
radši
##čeného
##tuře
rehabili
rozmezí
řešili
údajné
reportér
marián
##kot
115
obvinila
zdravé
získají
##moří
##bes
##amente
navrhla
##rií
##šující
poranění
##gre
hraz
odra
člu
stár
percent
příměří
rea
fk
notebook
medvě
porozu
analýza
amerika
moscow
zajat
námořní
##hru
dílu
skok
partneři
jud
moravec
anděl
##vas
oficiálním
nea
potřeboval
růžička
nadsá
##onic
jasnou
zajímat
úna
jazyky
deficit
##rage
zelenou
##ceně
emisí
##99
těžby
česk
vychy
cestách
##gramu
postavila
##13
sliby
zranil
lh
výher
buch
síle
odkazem
promile
drahé
orienta
##národ
prst
korpo
příslušné
projednání
hezky
##obra
skleně
holand
##inky
liberecký
eni
dc
mladého
elec
gigan
podpořili
padech
narozeniny
##ovávat
tlil
asnosti
koupila
tas
sděl
bojoval
akční
protě
##zelo
zemětřesení
muslimů
##lický
potvrzení
vládne
##cke
patře
nejvýše
kritici
soudn
##stní
našimi
sportovn
##řetr
bývalým
pokračovala
vnitro
neofici
##toto
##cm
##ener
styku
born
napadení
nejoblíben
zaps
zaznělo
epidemie
member
cestuj
odhadnout
pozvání
oženil
##gio
níže
stky
petru
proté
sul
hyster
años
##eng
prodlu
lístky
vlaků
penězi
málokdo
pouště
polský
##čká
mandátu
run
author
vymýš
patrik
červená
posel
berdy
účinky
oleje
asy
prošet
odvola
nkú
okno
útočníci
přímém
územního
haná
cham
tuh
boru
leb
dere
vent
dorazí
pohotovost
trolej
edit
litoměři
zastavila
##kre
##hová
labe
kolikr
začínal
překonat
hektarů
bať
ai
konta
##terií
podezřelý
privatizace
víceméně
jednatel
hůř
jiřím
prvek
postrá
nedal
obřad
zře
##rách
##platek
českému
spokojeni
zbyte
posudek
1958
nespráv
##lete
neto
verzí
pir
ústup
##zeným
instalace
##kovan
boho
premium
##mani
typické
##zav
schil
teplice
pořízení
chvá
příčinu
nadstand
bohatství
##líky
životu
američtí
gay
extraligy
výška
neon
shar
souhlasu
šampionát
##back
dočkal
##žiště
gabriela
krásný
novan
zakot
etapa
##nictvo
exkluzivní
bodem
zeď
plave
ankara
##lio
##pali
tony
ledu
zajistili
bratři
pust
zaměstnancům
poznání
útočí
odrů
zákazník
press
čistý
dotázaných
samotnou
##istou
určena
armád
##eníku
aktiva
##cur
same
oligar
innost
##ders
##rado
##fiková
bojují
lg
umožnit
##uma
jinam
předpokládat
schůze
vytě
navrátil
##čové
uvádějí
##lované
173
##vým
zvem
tisková
probíhala
kopí
blízkém
scéna
jakkoli
potenciální
kalendář
##kace
zahrn
provedli
zvolil
přijíma
##bírat
enos
platné
xp
gólu
##gicky
crisis
odvolat
bankro
letounů
##livní
##ládá
exped
šéfka
##bis
odevzd
posoudit
spla
bolí
rejstří
kancléř
guardian
zrekonstru
daném
vší
průběžně
vydavatelství
chvilku
joe
##kora
zahradu
##ěli
plzeňský
toky
švédsku
krátký
řeknu
nedostali
##28
citoval
jackson
fried
kyberne
ota
valent
##obě
mary
##rent
merkelové
##odo
##ander
poukázal
tráví
fly
reformu
edv
##zkou
mole
životo
gymnázia
odnes
zábra
kliniky
mladou
##dition
alžbět
dobách
skončili
vynalo
barbora
jdu
vyhovuje
gps
dci
typů
nenechá
vyrazit
##zít
vytla
zadání
##zeli
umožňují
spartě
dycky
holding
retro
prsty
##tací
řece
zasáhla
elektráren
pohodlně
##růstu
enost
rož
5000
adek
bomba
posed
lut
jmy
stavbou
want
obtě
##znali
zadrželi
##27
tratě
##cový
##14
štef
bezpečné
job
##šík
##telným
##telnosti
upozorňují
dřevěné
stačit
##lah
##ktory
kys
plach
zno
památka
jihlavě
##vizi
přáteli
subjektů
souhlasit
publikováno
vzdát
spotřeba
převaž
##financ
krásná
apr
večerní
sluneční
##enc
neprac
španělské
žur
podstatn
posi
award
drav
donbas
tabá
nejvyšších
důležitým
##vanou
zahaj
##äsident
finální
zabýval
bonusweb
akcích
patro
rovni
zklamání
nástrojů
velkými
ekonomick
nezletil
modernizaci
##tce
podnět
##líku
světle
sál
nízkou
zadržení
piet
zú
##pend
##áru
displejem
much
oscar
prodejce
##cejí
##cast
rozez
předměstí
historického
dk
psi
neřekl
spoje
marian
cestovat
##iten
dnešních
hrálo
##iladel
domem
earlier
bato
majitelů
##bulu
měřít
vytváření
chlapci
sir
novinek
hladiny
##istu
vzkázal
neobvykl
zy
##lian
##enos
##nových
##čat
roztr
singa
geni
československo
klasickou
##áb
extrémní
##tul
dramati
jeví
##nuty
zvyšovat
očekávají
##kerou
strojí
hatte
odchází
zákoníku
asfal
nba
army
reflex
detro
##entes
úspěšná
hore
unifor
řa
mláď
wester
pošta
nejtěžší
##das
legend
oheň
##žnosti
německem
porážku
vyzvala
středočeského
delegace
##nerová
kauz
zúčastnit
odstí
##sák
působila
základy
zajistil
prosazuje
služební
zaveden
schůzku
pouhé
zmrz
poděkovat
sucho
zúčastnilo
svěřil
capa
linii
severn
##alitu
vybírá
aho
atentát
lee
vyzved
otci
##ština
výbuš
obrázek
##ause
jakožto
##list
prask
vzpomínky
stavn
způsobilo
opravit
hypote
ura
##inut
píší
kompletně
obyvatelstvo
ovala
podává
sídla
toki
účty
oborů
nemůžete
japonské
milióny
vzru
strakon
rozpu
čínou
dominik
praktické
rodič
dřívě
zimu
důkazem
příchod
right
zaměřit
pivovaru
jir
připravila
##padek
využili
stoupá
aktivn
total
mimin
evropským
pronesl
fox
přátelství
uzn
mechan
koncepci
nejl
wid
oil
##nského
ukázaly
because
úvěrů
##krás
pošty
hráčům
kanady
zápasem
dvojí
půjdou
inscenace
přehá
poledne
##onov
##bii
vio
představy
úsměv
mozek
téhle
příčin
písku
##toch
vystoupit
hrab
##ungen
extralig
kino
##voří
déšť
##cova
úsvit
##čané
##hující
světu
pozdrav
prázdné
různá
severoče
rozman
nedosá
##bava
střechu
schválit
neč
kanál
##ctv
zastupuje
mluvili
gril
vozem
občanská
válečných
předvedl
##lod
dolaru
##ickému
svěř
šumper
hlin
vict
mask
nejisto
maďarska
důvěryhod
ohodno
tajn
##zovan
přemýšlet
umělé
coopera
zvolený
charakterist
klat
investory
návod
kudy
vysočině
four
žila
režii
168
vězni
##lones
vězňů
vily
koř
nemožné
předních
úspěchem
neprod
social
davis
cons
boston
pomohou
malém
myšlenku
deutsche
hob
náhle
##erová
dostál
zasáhl
kapitál
nejkrás
8230
kamarády
hace
věra
článků
vyú
##šin
##nus
sebevra
přihlí
znamení
sebasti
spada
kanada
##nového
zemím
ovlivňuje
trénovat
kanadě
stabil
##áč
zasáhnout
##ndt
##yo
##sf
iniciativa
hudebních
prodalo
trat
polovin
ohrozit
nesmíme
williams
konzervat
angela
protektor
štěpánek
výkonný
chvi
svi
směřuje
analytici
##žce
potoka
pyrotech
palce
##kánu
rakouský
právních
respondentů
##rovým
hlídka
##atice
vrstva
generála
komisí
##tru
tajných
cdu
chile
zbyt
##isch
mnohokrát
vítá
1952
##letým
schengen
246
viru
##dle
prozraz
diese
historický
profesora
nižších
zw
lidovců
pomáhal
ujeme
rámec
vyhraje
##žejí
nouzi
##lát
alar
ničemu
hluboké
nápady
ledov
objevovat
prague
macek
prohra
pow
přešel
akorát
armádní
včer
něčem
daný
němuž
nejrychlejší
schválili
přibývá
obchodním
půdu
bubení
činil
dveř
manželku
neděla
nádrže
industri
acuerdo
lepším
snížila
emise
nahoře
prokuratu
##leon
útvaru
kolekce
baby
nikam
kosmon
reagovala
##tete
solo
lku
banko
sovětský
könn
rozehrá
rozpadu
vyma
otevřena
reform
hed
nákazy
##adě
##sková
výstavě
předpokládám
##lines
velitele
luk
převzala
držení
neru
slibu
autobusů
připraveny
debatě
soustředění
bond
užívá
kode
funkc
velvyslan
horské
palub
neko
přijímá
investici
psů
neposlední
durante
zabr
příno
##turist
##naje
nízko
odešla
1959
senátoři
edch
odnětí
sociolog
##oný
obrátit
platformy
diecé
personál
poin
zala
##ison
výběrového
paroub
plze
ničím
agreement
připomínají
##akar
kyt
sedmnáct
výměna
ednost
1919
##řskou
odsouzení
##ró
trendy
##tivě
spa
pronají
japonska
called
simp
přerov
nisou
envi
interven
rum
číslem
vnímat
fotoaparát
blízkého
přispívá
jednotlivými
zasta
žádným
odta
jakousi
kříže
uvedena
tank
vyhlásil
ciud
malaj
155
raketa
podepis
##imi
přiměř
páry
bojovali
vyšetřuje
plot
sestři
existovat
##žného
výskyt
potkal
konstatovala
rozvíjet
motorola
##enými
zapad
prodejny
vašem
nedov
number
devi
##util
chvilek
seděl
povědomí
##lejí
eskou
##kostí
rezignoval
igor
vlakem
vesni
koncernu
utrá
colle
reperto
zvládli
většího
##iky
##idad
budovat
zmíněných
směrnice
nezav
wea
trv
kulat
procentech
analýzu
##uf
napodob
##jong
výjimečně
point
##drží
gazdík
youn
koncov
konají
svobodných
mala
hlavič
##podstat
porost
1951
ik
záři
##dělo
skončily
usiluje
ušetřit
pochopení
typi
tilet
svato
bend
minor
půd
##vers
kostým
gabri
surovin
zelený
mostě
technického
represent
sedět
bral
prvé
##comu
##lické
kučera
zhléd
úvodním
překlad
uzavřené
přestal
uspět
filhar
hlášení
##gte
obecní
vratislav
##běhl
##řeje
motorů
písničky
##hony
##zardu
ujistil
překvapilo
##lky
skrip
bazénu
nástro
malin
moravské
zničit
inn
očkování
startem
stihl
geno
vyjadřuje
##jícími
multiplayer
edlo
přírodních
argentina
sebevraždu
##níkovi
##ridad
pracující
vpřed
zdy
německém
situation
vik
obser
pevné
odlišné
plzeňského
průměrně
asem
severně
zasahovat
##eb
komiks
potr
wood
gon
itali
##uge
žádného
##vaní
protá
spě
nezmění
senátorů
nepřetr
poslala
jižně
vesnic
pravicové
##zec
přeroz
marihu
záznamy
165
rezervy
kdykoli
britové
rky
##mak
##tec
your
problé
nadstandard
protikorupční
eliš
finančním
where
úzce
blízký
pump
teher
bibli
every
nouze
propojen
##komuni
přip
brabec
##sků
krvi
jezer
obklop
umístěna
vstoupila
microsoftu
ses
šach
zaujal
hop
autorka
##racích
##hodnější
174
tyg
připravovat
mraz
##hmen
kamerou
kompromi
citovala
spisu
##có
domluvit
dovnitř
nul
lásku
##alth
##hradě
absence
##zejí
soubě
idc
kriminální
dluhopisů
##řednost
provizor
##ujte
zkum
klidn
zlína
závažné
dokázat
centrá
zvýšené
##boar
závisí
zpoždění
vážná
totali
samu
##post
wars
získává
obrátil
spojence
poři
##elli
robin
nila
děsi
hart
##bů
testů
požádala
učinit
230
soudců
východním
acce
logické
rodák
studené
představitele
obyvateli
kev
ujal
##rik
statement
příznaky
producen
##ánem
##ňuji
muzikan
##fol
##stevní
odkou
požadavků
labo
premier
##líme
maduro
druho
přibližuje
zbyněk
anu
cestovního
uvedených
zprvu
přilá
připouští
žáky
##pění
sergej
transakce
wimb
současným
emer
fará
hmoty
pravdy
muslimové
kompletn
vypadají
##orm
subjekt
řetězce
kruhu
##talo
čaro
protěj
rozvěd
jakkoliv
hrajeme
domech
otevřela
výjimku
nasto
lidského
##skop
pevnost
obličeje
##měrné
ohrožuje
neuvěřitelné
aktivisté
zabít
##cart
šílen
švýcarsko
policejních
výnos
final
odhalit
dino
sist
##lady
stránku
refu
zadn
##nity
kabině
odtr
letectva
docu
sab
multimedi
dobrých
nuje
aktivitu
stáhnout
necelé
##aneme
čtvrtém
prohře
##vut
monit
wimbled
##hůru
etapy
1930
nestane
značkou
kubi
žurnali
děčín
lech
##ember
rub
červenou
##formace
##lením
erstv
náměstkyně
##bíral
##not
dív
mül
vzhůru
nehodlá
position
nepřetržit
převzetí
neobvyk
potřebovali
aerolin
satelit
##illa
agency
caro
přijet
frey
venkovní
jednostran
##čnice
táta
hodinky
weapon
asistence
hoří
přečíst
##linu
##náší
odpůrci
problémech
db
dead
obrazovky
tvorba
záležet
zlev
vzadu
širok
##antně
dostatečné
rt
výhodné
vstupní
##rních
izraelské
##jdete
chrámu
mnohých
##gna
toale
##sts
next
einem
plzeňské
indian
demonstr
srozumi
##kládal
janda
##bost
osmé
přislí
bratislav
##raly
##álech
##meňte
platnosti
aspx
shrnul
strikt
uveřej
##enách
dukla
jezdil
##ono
nastoupí
millones
nebav
útokem
otevřená
vytáhl
terit
léčby
shromažď
nastat
cem
sedmé
přijímání
čd
hluboko
nastane
##rodi
zvítězila
důrazně
territori
uš
školky
##stek
##vnění
doplnit
francouzi
doporučil
oslab
bilanci
kalku
##embre
odstupem
úraz
voličům
ostravské
polovi
průzkumů
přízemí
##ined
nekončí
##stonu
federální
soči
zraněním
odehrála
vážím
oslovit
##atřicetiletý
zachoval
teplotu
eje
loaj
občanských
olympiádě
rozk
obvyklé
upřednost
1954
spánku
lila
##žad
rozliš
přítele
vězně
##ákem
přístavu
otázkách
vati
displeji
kody
lisabon
přestávce
jinému
cin
výměnou
navázat
cet
půjčky
##ňová
kriminality
zdát
kontrakt
družstva
oži
##tina
##lici
krásně
hluboce
obrazov
patřit
##louvá
slušně
kato
vand
##pto
pará
democ
espa
nepla
kolum
270
týdnem
chinese
jdeme
independ
tiene
##emy
domn
zúčastní
vyvolalo
threat
anglické
vstupem
revit
evo
vondra
works
ukrain
##fii
středního
##lica
stna
odhalení
##side
hájit
wed
lot
rodinného
historick
lavič
kondici
sčítání
nepředstav
cross
conce
novinách
esa
dorazili
dostaneme
nenávisti
proj
bydliště
hrozba
váhu
furt
skvělou
znásilnění
##mad
chodce
##řte
otv
europoslan
syri
chovají
otevírá
montre
##dolfa
107
oskar
návrhá
dluž
legislativy
##zová
prokázat
vikt
starostů
dobí
##štěna
zdvoj
commit
takovému
##koji
##isek
spoření
úle
efektivně
přejít
katastru
##zvu
založili
rovnová
odbornou
##ont
##čna
hust
problematice
plukov
##hon
screens
nash
hvězdou
vytvářejí
edstavuje
nepovedlo
olga
formálně
kana
##stění
##meme
kandidoval
##aria
postarat
lží
rk
nedostatkem
podá
kanceláři
obrně
##kolog
indoné
##lout
jíst
vládnoucí
kameru
koncertů
webové
zao
sedmnácti
##osu
##skak
katalán
víta
nimž
1936
##vů
##vic
colo
unikát
zali
meteorologové
osmdesát
##otou
patra
edstavitel
někdejšího
zásahy
##öl
prag
návštěvníkům
předchozího
welt
podíleli
podklady
chrudim
prodejem
papr
magazínu
before
divákům
ziskem
##líků
##zvou
tory
xeno
##vet
##ženými
fantasy
katolické
##ae
ciudad
besky
parlamentním
ask
kozen
průzkumy
camp
srdci
srážky
anonym
okou
dolej
##zą
zdánlivě
omluvil
señ
skvr
ohně
jazyků
nedokázali
odškodnění
bezes
krajin
popul
pochopiteln
zpětně
předání
mohut
rech
vydalo
abra
##xx
month
břeclav
kandidaturu
nepodpo
##vami
exoti
motivaci
liver
##ка
bloom
vyvíjí
osmdesátých
poslouchat
kladu
záda
asov
faktor
diskuze
odpovědí
##komi
nehle
depres
slevu
167
##rator
zbý
kategorií
uskutečnit
utaj
preventivní
singl
suk
##mysly
##jezdech
nadnárod
postavou
cs
ležící
obsta
##chos
chrám
mikuláš
itou
econo
##ars
##rův
vyhledá
stanoven
angličtině
stupci
vok
akté
lázní
krátkou
##ladit
vyskytují
užit
skala
stnosti
bah
žádají
dosavadních
##29
##cci
hájek
jela
stylem
pracovník
odvol
akademi
##mara
nepů
jakési
důchody
work
mirek
##stvem
added
lavrov
veškerá
full
##atřiceti
announce
ukl
##tační
pravděpodobnost
nejra
pořádek
zabit
type
##tember
husto
vztazích
rozměry
case
zahájí
chtělo
smů
králem
takzvaných
tlumo
##novou
##itosti
díle
arábie
vyšším
##švi
##nutý
přežití
spoluob
určení
zaměstnavatele
##ies
schopné
vnitrost
světem
dráze
veškerou
bang
##mut
zeptat
dělala
způsobila
##stej
##stad
považujeme
poznal
impo
továrny
##arov
nakupovat
klíčový
exteri
##vaného
##anými
vyhově
##ňujeme
funkcion
pohřeb
dospělých
spisovatele
ovoc
produktiv
čvut
pozměňovací
připraveno
kremlu
zasahu
výhry
eurotel
relations
bratislava
neuděla
vicepremiér
tendru
##asing
nevylu
reklamní
spáchání
červený
katar
##érou
centimetr
povále
doležal
kovář
starostou
##mostí
zadržela
rozděli
cameron
inteligence
##části
vrcholem
kapitána
léčba
buněk
key
komod
zákrok
nápl
uskute
isa
koc
vila
považoval
procesy
majetkem
##oní
nevědí
gymnázium
motivace
slavného
koupali
zkrach
baro
vyjádřila
senioři
hledal
nejste
temelí
##lanku
##knutí
nohu
1957
výhrady
fabri
obrazů
edem
orientaci
hospody
různě
ujišť
gali
uzdrav
děde
schopný
uplatnit
schwarzenberga
nekou
##átcích
klasický
##stry
marš
armádou
nechápu
věděla
##zak
váz
touží
florid
frid
##cción
obrazovce
teplá
hypot
nárůstu
odpočí
zvládl
dopustil
##avu
klientům
##měs
##orum
ukrajinský
podrobně
sedmdesát
učinil
lidových
nákupy
solu
brad
kádru
olomouckého
podvodu
jubi
přesá
pódiu
kratoch
vysílá
soustavy
##nickým
flash
depo
ankety
dárek
phdr
##berou
strukturu
všiml
##non
##bauer
prostran
prix
pauš
nechte
pest
christian
následovala
přístrojů
zpravodajské
čehož
drobn
zahrát
zóně
bratrem
recent
vesměs
posouzení
jejími
všemu
výslechu
převrat
preference
hlasem
koreji
překladu
chodili
##ící
hlavními
čtvrteční
nn
##níme
##jního
skvělá
požadovat
souhlasil
okupace
##lemi
fotbalisté
propuštěn
publikace
koronavirem
prezentaci
##hin
##onicky
sala
##stre
##wied
##ezi
řešil
stabilitu
privatizaci
320
##até
žádal
operátor
hradiště
##vitu
hladina
lídrem
datov
zé
vysou
písek
diesel
hasta
##rup
level
##hád
##ball
převzít
neho
podi
doo
zastává
##chálek
zájemců
reorgani
gesta
jedou
nacional
edt
bývalí
hospodářských
napsali
konstant
výbuchu
vyrovnal
hospodářská
jezero
##rované
štědr
zimních
situacích
zás
slovenských
ochranné
look
pelh
ever
##hneme
mla
##ckon
dával
irani
stávají
američanů
kněž
filmový
##káme
čerstv
rai
dobrodružství
předví
aler
sdělit
##stas
něčeho
cizích
znalost
středeční
financial
nepůjde
serví
těhot
uvědomuje
šam
vyha
přistání
běžného
vyvolala
délky
modlit
proží
hotovosti
vodafone
turn
ztrátou
vyměnit
bolše
investoři
1937
hromadné
rapid
##vacího
chro
vrstvy
zraněn
both
nezod
dobrém
polského
nervy
obyt
##100
zvykem
podtr
odešli
kotle
vyděla
představiteli
přidá
signali
vnímám
kolen
##menut
kraus
nepřijatelné
poskytne
počítačů
výjimečný
posunout
taliban
obávám
délku
bilance
##vním
kladně
politikům
nadří
spotřeby
nejčastější
židů
otevřeno
občerstvení
matce
god
108
popírá
placení
převed
sledujeme
výcvik
rs
technickou
patři
určitá
asistencí
francouzských
strážníků
##letěl
flexi
rodinný
posílá
##átka
připojil
dveřmi
graná
liverpo
porážce
##anční
ober
širokou
wür
odsoudil
zálivu
zákoně
nick
tlou
pozorovat
rukoj
benef
zatčen
hazardu
noví
koupili
nezávislých
navyš
ludvík
##rica
mrá
##šoval
nemocných
##livou
nalezen
holub
handicap
dvakr
seguridad
aa
vlastník
##inský
vstupné
propagaci
##alismus
hladinu
konaly
##atika
neuv
smlu
launch
103
##jer
plném
hůře
##její
mříž
veget
rafa
verdiktu
nata
lom
královna
třinec
úvěru
habe
exkluzi
spotřebitele
výslov
hokeje
ohla
končet
kvóty
husit
##advacetiletá
silami
vce
správnou
fotbale
dluhopisy
dáme
umět
159
užívat
výklad
##ťte
celkovém
belgii
hojně
##tvr
ebi
##erie
dovez
buil
information
chroni
elimin
velkolep
barcelona
neúspěšně
juan
diagn
##žem
##rovy
paris
vrah
nenápad
mainst
lidskou
ochoten
##vkách
každodenní
otest
hans
záložní
sešli
##tých
##randa
předložit
zakr
říjn
adventu
kanálu
ulti
klima
1929
aid
##via
balíček
olympijský
barrandov
šer
106
##berk
##ungu
postižených
hnutím
chytil
otevřených
likvidace
demokraty
zahájit
##ję
gard
věnovala
francis
ocení
podzemní
improvi
zvuku
hranicí
freeware
simona
kmo
##cor
maturit
technikou
oficiálních
zážitky
##san
zkumu
realitu
nazval
barack
##árních
##ents
nejlev
úplné
závěrem
valo
souhrn
svobodní
opin
singapu
novinku
##dalo
##šák
##gic
pedago
##pper
pčr
former
vychut
obličej
skladu
skladba
teorii
komfort
economic
horizontu
osobou
jakými
fisk
sběr
volá
##lation
moravce
etap
svahu
nezab
silným
rival
zajímavých
##lárních
##ryho
proběhl
vážení
hrozbou
označují
organizátor
označením
restri
bohumil
hostování
durch
rein
brazílie
adri
##elem
##jížděl
##zef
syny
filipa
popisoval
zasloužil
osamo
prodejci
nakažených
železnice
koneckon
zádech
##tín
pojed
##jete
rusa
regionálních
act
##alita
1955
false
russischen
teroristy
srazil
##cují
jihovýchodní
klára
nemusíte
prevenci
hygieni
ebuje
soukromého
vise
bíl
pití
linu
benát
slávy
pondělní
tažení
dokumentaci
republikou
##řům
ley
migranti
informovali
##less
dívek
havlíček
1905
rozbit
smutné
cul
found
zakoupit
luž
náboženské
zar
zájm
pokyn
zdravotnických
lyžování
umělec
1900
nedojde
připojit
##chan
důsledkem
cenné
samice
hokejisté
pochvá
jirá
souvislost
příznivců
ombudsman
##stky
##kow
volantem
##enárist
mistrem
koupí
hym
nenávid
vhodný
matt
považována
šedesátých
221
socialismu
mare
skandál
estados
##px
podpořila
stku
žant
zimo
seznámil
občana
sportovci
konstrukt
##mor
then
exekutor
kocou
vag
magistr
seznámit
paragraf
zot
does
vzrostla
nevýhod
elektronick
poznatky
saudi
zce
čtvrtou
nejdražší
přijela
slušné
1935
##ncem
##tickým
nemohlo
upřím
kupovat
stovku
šetřit
prodávají
##ňské
formátu
##likovat
smyslem
nejroz
##držet
##bir
poez
provozovat
imigrantů
přesvědčeni
filmových
nastí
mince
tibet
kadlec
khl
úkolů
deutschland
##manová
formulá
sarko
nus
104
takzvanou
##ли
názorem
prohrála
dohledem
významná
##ات
smyslupl
cyklus
videokli
##ovanější
úniku
##školá
nepřekva
faktem
stezka
alber
omyl
záření
staršího
mluvilo
dopisu
úterní
todo
sound
valaš
nedok
elem
průjezd
nemocnicích
ohlas
vyplynulo
präsident
rozpou
přihlásit
guerra
##idas
rozhra
##mentech
112
spik
dětský
neumož
kůrov
přetrvá
špatnou
obmě
##hodn
rozvá
frýdek
hezké
lesích
velvyslance
neposky
##heit
neprů
vyvě
ido
zabra
mö
nakolik
main
dělost
ukrajinského
mzdu
výraznou
vlajky
rka
never
neznámý
všeobecně
tendenci
pokusit
nespokojen
divid
skutečnou
paliv
stáli
tvrdila
nejsp
filipí
pojišťoven
##ádou
rafin
kdybyste
##ated
ústeckého
nabídkou
církevních
##roste
##díme
podepsali
úředník
konečný
škro
decision
korupční
zez
berndt
mandátů
regulaci
hamil
věřil
sas
##čanů
resear
energy
going
splnění
vodem
##pilo
porazila
konečná
postoupil
nutná
congres
schopná
právním
exministr
pololetí
##tování
1200
rekonstrukcí
##atur
finál
soukromý
hoch
servix
##ett
policy
scenárist
ruští
jordán
##kářů
##anda
vývojem
use
bradá
sportovců
kazach
přežít
autory
schopností
jihomoravského
přítelkyně
čaroděj
##yka
seat
rozhovorů
wurde
odvysí
munice
jímž
ppf
##drom
##gne
1932
oceánu
libereckého
nepotřeb
jednáních
chyběl
nábytek
přítelem
hacker
valy
idclanku
platil
bada
koleje
plynov
impu
vývoz
##ovníka
zásadním
připomněla
archivu
vstoupí
jurečka
hali
sobn
desetitisí
kh
přehlí
neset
dívku
znemož
chvál
##ovna
kontinentu
špatného
hokejové
stanley
odhady
počítači
aran
afd
editele
pražskou
večí
šťá
##eck
##wat
znalec
bezesporu
##maci
plody
kapitálu
obdivu
##ťák
dokončit
probíhající
dárky
##65
poplatku
##over
formální
označit
stávajících
orgánu
##syst
neobje
##tara
bubli
##ladě
jednali
política
abe
##ming
soužití
nepočítá
potíží
chleba
projeví
potvrzují
order
výži
vlastníkem
proru
monte
západního
provedla
patrn
mareš
amd
postižené
tuni
zastřel
jany
kamion
hudbě
středoevrop
církví
halu
htc
nastala
doplat
domo
pchjong
voják
hovoru
##ďa
volných
##šedesáti
akvizi
orchestr
kriticky
sestava
stisk
nezajímá
prodala
amazon
kvar
cibu
club
čes
fanouškům
eroti
##štěním
hrozby
vlák
varia
##iz
základu
sálu
pohov
##stoupila
pustili
trvající
styli
kaf
vnímání
ipraven
velení
totalit
tanky
freytag
jimž
zvládne
kopu
československý
přísně
napjat
nepříliš
blažek
zahájena
milán
podzimní
tatra
čl
ducha
hudbou
ovou
hyunda
rakoviny
poskytnutí
znojem
kouče
pěve
praktiky
děv
dolu
parliam
##luva
podporoval
mol
##ctive
stalin
zařazení
lej
##vii
spuštění
##uk
žene
docházelo
odborná
spotřebu
finsko
objevu
zmíněný
premiéře
osma
nedale
evolu
ose
legendy
challen
##jezdů
celní
informačních
padne
##istických
karv
##žád
vítězné
oscara
běle
##ánů
zajímavou
##adlo
chytré
legi
historickou
ží
soboty
lali
bali
##spi
##sahuje
podrobné
expozici
ztratí
lady
rii
alf
jenomže
psí
vale
oběd
kristý
takovéto
premiérovi
evidenci
ničeho
grafika
school
zdravotně
rovině
zkoušku
cister
výstra
konz
zahájili
nakl
still
potýká
veřejností
účastnit
ptát
result
svěřila
kritéria
uvolnění
antonína
šev
konalo
pokračují
nabídla
náležit
zaprac
##oky
##bury
jakýsi
torpé
##ejte
kategoriích
římě
##ómi
zavolal
společných
závazků
džihád
##ść
požadují
bohatý
mul
sbírku
odevz
##slení
##číně
zbraněmi
líbit
pozorování
domini
sňat
časté
link
prokop
jihlavy
odva
##vézt
umístil
engine
ples
uvědom
částkou
směs
svatop
široký
##że
středověku
národnosti
##ovanosti
maláčová
zaujme
údržbu
možnou
##šeni
pokusili
hardwar
podnikatelské
zkušební
##říkladu
teroristických
demokratická
hodoní
vietnamu
##recht
pracujeme
reforem
##žeh
logo
těžkých
důkladně
kupříkladu
dráha
lind
šin
odchodem
##mato
vrchního
orig
dřev
následujícím
stroji
money
shak
atmosféře
ukrajinská
náleží
bázi
bomby
##nitu
stanoví
##mdesáti
##pus
apart
jord
nerad
dotační
uděláme
current
ztoto
kytarista
modul
1933
brněnský
jazykem
energetiky
##řování
sklád
sešlo
svěřen
čekání
vyvinut
royal
důl
zako
vzorky
##rním
konfigu
broad
parliament
schválil
dluhů
jersey
listů
##aks
project
devadesát
noch
neoček
##fur
##kultu
scha
kouzlo
klíčovou
##hard
soben
##anka
agenturu
poruchy
vyta
založené
nafty
podrobn
piloti
technický
hospodářský
proměnil
okresního
čong
prokaza
dodávek
##thing
estn
##ome
koz
hradní
mladým
nezveřej
##ránek
navštíví
alleged
##elou
##bala
blb
nezpo
zasvě
členům
povstalci
death
dj
##mentální
uspořád
karlem
odeh
##vaným
comm
personálu
poškozené
současném
##dová
colum
faktu
strojíren
zate
ukázali
young
election
mladist
parkova
ovac
##uli
doklad
fry
užít
kapitu
pohrani
rc
germany
paláci
volal
##skách
##cipa
##mava
jazyce
mundo
natož
obrace
odví
nedařilo
čokolá
rome
médiím
slavnostně
##tkou
##fü
##ěné
krajina
##ózu
kluky
faj
vegas
zahraničního
rubrika
drti
daného
doc
unav
##lům
opustili
##žitelné
##udy
krajem
přita
##érie
některý
brej
klášte
##ative
zvažuje
dně
##dela
konzervativ
##novém
dpp
obyvatelům
##fel
##work
ptáků
marta
srážek
hein
profese
italská
##roví
poukaz
senátora
evropou
konzole
song
odhalil
dospělí
mayor
poskytují
sportovního
ekvapen
154
clar
gólem
devatenácti
ján
doned
prohlou
nervózní
##kc
umělce
budějovic
xav
##čar
přepl
bavili
vyf
michálek
fakultu
anglický
sledují
obtížně
rallye
regionálního
opava
vltavy
peněžen
##nostní
průšvi
bezpo
farnosti
klesly
zapojil
dozvěděli
dab
##onia
stanislava
##čtu
nějakém
zazpí
oznámili
sema
akc
sklení
vystupovat
koncentra
##graph
ahm
118
##mý
italského
záchranného
vycházet
jedovat
voze
podlo
pixel
vybojoval
prsten
##xico
investorů
zpracovat
uvažovat
decla
klasických
integraci
suroviny
věnují
austr
zbar
##uti
stere
shodují
leteck
patent
čsob
zemřeli
chirur
náhrady
natu
starém
ovlivňovat
##vkami
bouře
koncentrace
##jímav
frakce
aduje
što
##lini
kapsy
ponechá
omezené
oživení
hill
naby
##chel
pákistán
provede
dlouhodobý
opakuje
vhodná
stanovena
sněmovní
vládního
davu
##haus
spotřební
kubán
hole
složil
ws
přesou
špa
vládnout
renom
opustila
konkrétním
epizod
uzá
technik
uprchlíkům
sibi
konu
litru
spekuluje
ucra
snižovat
ante
čekala
pozemní
skripal
množstvím
ztrátě
eduard
známým
nábře
očekáváme
listiny
stockhol
stoprocentně
nesouvis
nevlast
možného
##vače
říši
telefonní
tísni
##stát
zatčení
##map
původem
informacemi
útěku
úlohu
doro
šár
book
demokratických
zastaví
samotném
bojovníků
konceptu
obávají
přejí
pracovním
sporů
modelem
cizince
napi
zamířil
zčásti
komunistického
otepl
##může
pojďme
křeslo
lsk
hormon
samostatn
kinem
vzrostly
vyslovil
skrývá
třicát
hamilton
yu
dostávat
správná
rf
zády
zájmem
svrch
astronomi
napojení
irok
jelínek
jistá
věznici
express
pokrok
magaz
středočeský
trojnásob
činit
onen
dětského
##band
letn
architekti
ene
jíž
##ťané
##alizovat
dup
pravy
vejte
vnímají
fü
ráz
##děly
bam
##itung
synch
křeh
dojmem
rudé
památní
účastí
nenapadlo
650
dio
114
ekologické
##išti
##veru
##sii
různým
mokr
výměně
japonsk
##lip
menším
výborné
sparťan
přírodově
sobota
činila
##ror
byst
##šelo
vzdá
##štěných
promo
##čína
steve
pásmu
bývalou
úřadem
modrá
náročný
distribuce
lala
nejvýraz
devatenáct
včere
vnou
ferdinand
gun
##nego
bagdá
pobal
##zovaný
exekuce
volném
hyundai
##nikem
řekněme
pohrom
kanalizace
korid
ukrajinských
čunek
##bov
dokončena
předčasně
mps
##fej
rektor
philadel
vystupoval
juncker
ideologie
výbuch
drobných
constru
marx
##vedou
koukal
vzhledu
diver
oblíbený
typicky
##číte
úrovní
jizer
veterinární
##head
ohl
constitu
platforma
ostrovech
netýká
neuspěl
faktory
##čte
##peg
útokům
zařízeních
výhoda
oslovil
candid
ulicí
ztrac
bílou
druži
ústeckém
interest
nevznik
překoná
ostrovů
nemyslí
##inka
kuřá
svědek
pracuj
##álí
romů
##cových
prase
meziří
##68
##daly
jmenov
nachy
kritiků
tlen
teroristé
epidemi
střílet
hp
kie
nenabí
rozšířil
benda
nezávislý
televizním
innosti
169
jižních
obchodování
trestně
advokátní
##strace
ló
sexy
ptali
mléka
bizar
hrozn
fifa
elity
přivá
přidala
pravomocí
zveřejnit
vykonávat
masaryka
zimy
ukli
vrac
předat
turkish
nejdelší
##ties
neschopnost
využitím
##irm
hynek
ručně
náročná
éry
##jka
lepšímu
softwaru
úvahy
státům
153
vztahuje
frekvence
operation
aré
tramvají
##ktivně
##hvě
today
##mněl
úvěry
##enali
svátky
nálep
##lovým
narazí
hollan
prototyp
odstoupil
staletí
tvůrce
táhne
##ział
autosal
hospodářského
čeledi
##lema
starově
desek
stanoviska
ostatky
vyšetřovatel
stimu
posunul
závazek
prodejní
vysloužil
corea
funkcioná
sbírka
bé
mecku
přidali
slev
mongol
benjam
pron
spoz
saf
##tuj
mechanismus
trvání
heger
##rada
čtenáře
štáb
dno
vyzv
renault
nař
spolkové
destina
##urch
rétori
přešla
nohama
tox
zlínského
krná
norma
zklaman
ukončila
another
legenda
velkému
mosc
editor
##lovy
správního
krádeže
pouli
libu
rybník
štra
bydlen
středním
infekce
##sse
folkl
electro
anny
spustit
parkovací
podpisů
legální
polsk
místnost
brand
mount
##enen
letů
nezač
embargo
milá
vyprávění
petříček
##inění
##árny
vyhlášen
chráněné
##táře
kritické
eln
verz
střelou
spravuje
konstatovat
předmět
##hospodá
santa
pochopil
##aki
kapo
otros
porsche
zvýšenou
odráží
kapelou
foldyna
pohádky
sili
naslou
skrz
uspokoj
používal
biatlon
vodop
##istický
odleh
kubera
neres
zpoplat
##tního
paroubka
kontejner
mig
sein
přesný
letošních
překvapením
1928
jaksi
tuzemské
109
invazi
nesed
udělení
vk
citro
ovatel
společná
drážď
lew
martinem
stání
##chera
neform
dosáhli
##šíte
opav
působící
##fica
delegátů
123
způsobené
itosti
senátní
pelhři
##pravdy
##pili
javor
potvrdily
difer
criti
##ving
pavlem
irán
příklady
propagand
hip
helsin
optimali
vyloženě
podobnost
měny
tvrtlet
##ační
takzvaného
jakoukoliv
plyne
jó
neuvědo
8226
##mysleli
##stic
cestovn
pravoslav
otisk
pokročil
vlně
pady
zbou
##ecký
truh
blat
##reich
127
odklad
sadu
mirka
schopny
reports
zločiny
uefa
efekty
zlatá
three
dělostřele
##orepubli
organ
bojové
vycházejí
poslancům
##álení
zlatých
revoluční
low
regula
náladu
přesněji
poroty
nedi
celkových
někým
čerpat
##urs
ruch
necess
životů
vnitřních
čtve
zvědav
##hodit
vypadal
papeže
##obuděj
brutální
krajině
##chovský
vyšetřovací
třem
magazín
الم
značnou
popřel
niž
sněhové
výraznější
podmínku
frýd
night
gratu
peuge
mládek
dopisy
konkrétního
##tnout
brněnského
vídně
tyč
hájil
komedi
navrhnout
ihr
prezentovat
sž
america
ninten
990
##anti
vynik
vyrazili
snou
##zed
dopadla
empres
coali
umístěn
disident
pokladny
##čo
bílých
##ták
##rous
tiská
německým
upou
matou
neonaci
superstar
kancléřka
help
popsat
ostré
##force
památník
##tober
##hout
eby
stříbro
páru
pleti
podávat
myslíme
palivo
oder
iso
zaměřené
přílo
samostatnou
zeleně
neumím
udržovat
##meňme
##pixel
fair
přesvědčený
daňového
odpovídat
souhlasím
přerušení
libyi
uvede
napá
zřiz
hluk
chebu
myslela
barevné
hudebního
dik
##wald
barel
ztě
robci
stone
zkres
střelu
##platí
##hart
textů
faul
cosi
miluje
libovol
pochodu
obsadili
blanka
netradiční
franz
exem
průvodce
hie
nače
méxico
##play
babišova
vyprod
příbrami
ronal
##ide
bydlet
datab
aty
##úbli
nechává
jime
##říz
aukce
##cri
##stiky
společném
hrubý
amnestie
obnovy
servisu
hokeji
srdeční
internacional
požadoval
ocitl
##ářem
spát
infar
adrenali
chemické
nemocen
uvo
přivedl
sobil
vazbu
nemí
titulem
nepravdi
ofenzi
##ux
běžnou
tav
nedoporu
trvalé
##ňovaly
norsko
místopředsedou
přizpůsobit
uchy
křižovatky
##lares
relax
udeřil
výživ
nejzá
tym
##zory
nepřítele
nepočí
analog
vypořádat
odvezli
##listům
##hrála
##ejme
zbořil
výměny
jádra
napravit
odkry
kočí
moderního
##dné
##louvat
budoucího
meč
hospitaliz
večeři
prostranství
vilém
##alost
turecký
163
proměn
nejraději
lon
##jského
##tery
trhů
zavě
xenofob
137
comer
zdravotnictv
zeleniny
návaz
přestala
navrá
vlastními
diet
vedoucího
obrázky
českobuděj
hrav
napoj
osudy
lípa
##řicet
jakoukoli
stoupl
organismu
systems
##lisí
dlaž
přihlásil
uspěl
##nikov
odbav
560
ház
##rovoz
rány
ghz
fungující
československého
kolena
struktura
##děk
aplikac
lék
sždc
osady
hrady
laser
spojená
vylí
zkouška
stanovit
vypořá
recon
nedb
zóna
pardubického
touha
virgin
čekalo
shodou
soutěžích
pup
##čno
future
sof
pohlav
nuevo
zklid
kroup
##stající
vstupuje
budovou
limitu
jedny
watch
zajímalo
papíru
stály
nejenže
zkoumání
prvolig
slavnosti
důchodce
vysa
nejúspěšnější
nepovo
nezvyk
elektřinu
spojenými
připomínat
těžkou
studentům
vymyslel
nastří
prvenství
obsadila
rozru
dosavadn
##letých
nepřímo
##änder
hrubého
##pez
alle
stereoty
second
##ceného
tila
eman
čtenářů
zesí
111
závodní
žantovský
##ży
chápe
děkan
uvnit
pásma
pda
prohled
věnu
billion
léčbě
schůzka
##icky
hur
jedince
převz
měšť
neode
nehraje
teroristů
schr
element
court
ita
##lné
reží
sny
holu
##ránilo
emis
vrstev
naděj
využije
mimořádný
konek
##iteln
nevěděli
klep
žalu
inovace
plánují
víru
moravskoslezském
nestand
technická
poskytla
hof
autobusové
neslu
sobit
odpu
talks
protestů
zpívá
totální
clear
teplé
petrov
worksho
##ief
manipulace
##čest
přeji
haw
zakry
suma
consi
předložil
celostát
republic
biop
názvy
umožnil
##čeli
posílat
šířit
doktora
křídlo
nejznámě
mlýn
##radi
suchá
pustí
profesorem
##arios
##monie
tuzemsku
iraq
pětkrát
důchodů
mzd
##feld
kultuře
1934
zdůraznila
strategické
nést
výpočet
dinosau
##sli
sedmdesátých
klání
##lovalo
kritik
pořadatel
tiny
oprávnění
##ovaně
nůž
happen
advo
metod
##yl
kněz
našemu
rozhraní
námořnictva
leteckých
uskutečnil
luft
weapons
kupní
tanec
##liví
zaost
banku
imperi
145
peace
staroměst
myslu
společenských
chystan
dome
muham
kroměříž
cv
vážený
##ckému
olomoucký
##richa
unijní
pomohly
pozůstat
odstoupení
vině
edky
tehdejším
nedostala
osobám
obnova
pneumatiky
moravskoslezského
mora
1925
mobily
nevyře
kvitová
pozvol
opačném
nápoje
sluní
přehodno
versus
##lana
signat
##enia
##peme
zapojen
záznamu
bílém
edstavit
maminky
úklid
280
direct
zabývají
vydávat
##řadech
mrtvé
##stali
1924
uchazečů
##ré
zásil
funda
vysta
missile
krátkém
výk
sebevražed
toman
omá
komen
wta
miami
dítěti
přiblížit
utkáních
postižením
zakladatele
koneckonců
osman
monu
absolvovat
evod
dpa
##lovu
použili
nadcházející
irozen
134
##ovatelné
konkurovat
fé
ink
shromáž
rozděl
lili
neudělal
protiv
duo
projektech
nejzajímav
jednotku
krevní
allen
podezřelé
fico
proslavil
pohledem
uvidíte
táborů
vynu
příchodem
zápor
##bioti
ověřit
hřib
přestat
vstře
tiskový
##čnými
##inálu
odmítnutí
doskoků
oliv
pohr
alep
instan
nezt
##ývání
stresu
##ničky
vinou
pozván
tesa
nesl
##itého
čtvrtiny
přesvědči
stnanci
filmem
zmizí
science
vem
through
zed
nespraved
fred
statisíce
kotel
čsa
dramaticky
vancou
lenov
deváté
kuri
##chali
pelikán
##lané
hö
neschopnosti
171
syd
mars
netuší
bezprostřední
tendr
odejde
projevem
obchodě
houby
rozhodují
permanent
velkory
##zpo
porazili
nizozemsko
nestandard
rozhodly
všeobecné
magdal
##anty
dynastie
drželi
así
výtr
dote
luka
nábřeží
ničí
klíčová
výuky
vystře
výroční
hospodářskou
ejnosti
koreje
závislost
úžasné
ocas
124
nakupu
orbán
##leného
andrew
pila
ns
ústecký
tvořily
známou
dítětem
christop
výchovy
kardinál
shled
obviněný
##tory
##pii
čtvrtinu
okamury
dospí
dete
tipy
117
ovládat
slováci
ie
dobří
usly
nastoupila
berdych
##pun
staněk
římské
research
spolužá
šumava
##advacetilet
tábory
matematiky
eventu
nestra
útocích
ušetří
recenzi
kabiny
zaží
korekt
arabských
obvinili
zásluhy
sejde
##žur
neoby
trůn
deko
##arová
geolog
moj
##mující
pestr
mrk
##žemi
tuzemských
jednička
utrat
domluvili
provozovatele
pyrami
porovná
jihomoravský
zahynul
ťok
##hé
případný
saying
##tne
křižovatce
##jním
mold
##trem
záměrem
##hák
měsícem
1921
scott
čp
odle
##stii
##blish
lac
##ов
zvolí
##position
##íše
neuvěřitelně
zámin
zoolog
zaplatili
nerozum
charitativní
casa
##padne
##mission
litu
##bezpe
roda
stavitel
gramů
height
naučil
zpěv
toma
docent
hloubky
libanon
kuku
pohraniční
firmami
vyhlášky
variantou
polojas
klubem
smartphone
##éle
##bsbur
natr
postupuje
tuny
gender
právnické
motocykl
##ovci
opě
stranám
##terii
písk
úvaz
sila
tvrdili
chodila
czy
setkali
pomník
národy
pěstování
##bilit
pošle
lva
utra
##mf
sklí
leden
##dis
patřilo
čte
něčemu
gau
spojů
antisem
ozbrojené
pravém
barvou
fall
nakládání
rozdělit
ovny
necháme
mód
bok
umístěny
pokoušel
soll
přibylo
vchod
##beru
##kací
upraven
vinohrad
##čice
ocel
srovnat
peklo
rna
ústava
parlamentnímlistům
konvi
uplynu
držitel
muziká
nezna
kout
hrůz
úředníky
regiony
církvi
trofej
daňový
formule
dešť
##tie
1914
##temp
medailí
nebýt
šedesáti
peti
sestřel
genera
stel
prémi
##stoupí
zajistila
pardubický
prosk
účtů
prvkem
##raket
čermák
agresiv
žel
nejr
spořitelny
uté
generací
neudělá
stability
ia
dávali
##delka
pohonných
burze
inspiraci
##rkou
##enec
rodinám
farnost
opatřením
naráž
zařízením
tká
zastra
zrušen
židé
vytí
instagram
##vacím
ds
zdat
##manem
102
navrhu
##lův
jadernou
##pin
##kaci
norsku
právníci
kysel
duševní
##úhel
##rohod
sumu
hráčky
##naté
##lišti
pauze
kněží
doopravdy
wu
podnikat
pitts
incre
fakulta
dli
##tova
dceř
##tschaft
official
april
light
##grad
ekat
##lejte
zabud
křeček
meeting
šéfredaktor
##žovala
matri
gynek
konopí
nepotřebuje
stejných
##boli
artic
změnách
kamarádi
milión
##ceni
##arth
##anům
sníd
sanciones
objektivní
lcd
travel
spod
sekci
zařadit
relevan
anglického
##daj
pruh
inspektor
únik
odkazuje
pojistn
dlouholetý
muslimské
saúdské
zane
berg
eso
##stero
prezidentský
novat
prostředek
moderátorka
jaromíra
zásady
uru
nemusela
zdražení
iveta
postoji
##kau
hlavá
představoval
tradičním
podepsala
karviné
lle
esca
brzo
elektronických
establish
vypadl
##tung
##sure
druhému
lahve
##soci
tragédii
في
obdržela
komedii
teritori
zachránil
##dáv
##vacích
chicago
luke
horním
hrací
absolvent
hotovost
prestiž
mořem
poštovní
jezu
##nutých
sametové
pompe
favori
optimální
zrušena
##pti
zaujala
hity
sydney
local
v4
rado
odsud
ochranou
są
prava
ojediněle
severního
zastupitele
##nickém
budí
vítězný
chuti
dostupná
řízením
teena
##ging
vyne
spir
##bly
udržel
příspěvků
nedob
prova
vystoupen
mynář
leda
hek
año
samotných
spojena
okomentoval
##ávna
jakýkoliv
publicista
adolf
švédska
radosti
hab
ruzy
##chozí
sledku
rozhran
charlie
úpravě
zavedl
stoper
telecomu
left
masarykovy
skut
jednotné
šetří
nb
##dam
publikoval
sestavit
fotbalového
severoatlan
##raných
generálním
čtvrtá
están
murray
dosáhne
schul
kapelu
snadn
comi
domku
##rostl
sloužila
neve
sej
tělocvi
načas
157
kopie
exhi
propadl
##rána
následoval
orlicí
zajetí
113
pojí
##pre
##erte
##video
zvol
qué
droga
pamatuji
černých
jimiž
aly
španělský
kozá
dáno
dovede
moscú
brali
gd
syř
dokončil
rav
slabé
dělníci
vrchu
erik
laur
projevil
fact
sedl
horských
stránka
samospráv
navrhli
lehčí
arogan
zákulisí
leny
ove
rup
vli
164
dopadl
podlahy
##gger
školá
široká
mladšího
rody
češtině
##istům
zahraje
ryze
penze
##gener
romové
nádrž
##dují
usad
dospěl
lidsko
harmoni
kolegou
toler
buddh
##ري
pavilonu
nepohod
metodou
pie
secretary
expressed
armé
baník
nebezpečná
výhrů
##psat
mřížemi
##gene
svatý
desáté
ukázky
pruhu
zaútočil
předra
kupo
přijme
##rány
řadách
nástupem
točí
##mate
příběhů
##mayer
atak
nožem
##yec
sebevědo
##lung
památkové
novější
koncertní
uskutečnila
jedinců
quick
garant
benzin
ustup
ideolog
stava
meziříčí
vystoupila
##livější
předali
tehdej
kompetence
běženců
ion
pokusů
učil
lap
britskou
ext
radou
profesní
##cat
spence
zahrnu
stavebnictví
prožil
anketě
poděkoval
vystřídal
zprávou
soust
##čelí
##wicz
konflikty
egypta
památníku
majitelka
kmot
##udo
napoví
příčina
časově
neju
nist
účetní
##well
naivní
zdej
náročnější
##rnou
důchodců
novorozen
obnoven
gesto
opatrně
žďár
wä
156
médii
walter
honza
133
poškodit
organizační
italsk
vyjádřili
bombardování
##ap
bojových
pozitivn
zada
říšské
klien
zvuky
vulg
kreati
muslimy
půdory
obdrží
předsednictví
kovan
titulní
dokola
##álen
##hánět
nutí
kandidátem
násle
vyvíjet
nekompro
550
uhl
levně
stupu
0cm
lidský
obzvlášť
vakcí
existuj
sdílení
luboš
##onii
obdobně
nec
sledk
kvalitou
##átků
babička
hřbitově
zúčastnili
neobe
krvá
rozpočtové
mog
východního
eskosloven
zaměstnává
zaplacení
výcviku
odvolací
čínu
meziroční
levné
vydán
sešel
zabere
volat
pobřežní
billboard
hostující
požádali
hnut
stojící
topolánka
nejdéle
##invest
obklo
domnívají
konso
chybou
šva
##esen
mš
eff
##leo
tvary
demonstranti
hodnotou
##stilo
berlin
střela
susp
děkujeme
odnesl
makro
vydělat
zničení
termíny
předá
potřebujete
příjemně
nesch
soutěžní
económi
rest
četl
defensa
perfektní
pandemie
##šného
habsbur
únos
čištění
##prs
základně
dvouhra
trailer
maďarské
gir
přestoupil
skladbu
##ňovou
kamil
kinemato
následek
dominant
##hova
unií
fungovala
bitco
středy
zakončil
kind
##ýn
arabské
havárie
nizozemsku
umístit
agrofertu
propaganda
assange
brazílii
##laví
kočár
prachu
polská
mmf
##árního
předvoleb
jung
diskuzi
morava
výskytu
volejbal
pohlí
dopustit
##měrech
uval
zasy
komplikuje
##cular
paraly
pokyny
určeny
vítězstvím
dušan
tvůrčí
touch
trutnov
##ica
psan
stanu
##lese
apli
stoprocentní
udělil
##ínek
zprovoz
##zant
kdokoliv
hall
boy
vodovod
sjednocení
berlína
##řeného
israeli
zástupcem
mléko
adop
##mega
vozovky
použity
věnovali
##cc
telefonem
##of
##pku
##berger
kontinu
depart
odkazy
##wen
prostitu
##iku
vytip
napojen
mráz
hotov
maloobchod
##álnější
zemského
motivem
1800
nečekal
##manžel
wenn
##kad
zavzpo
zlínském
mainstream
vaření
pozoruhod
paz
filmového
##šnou
příliv
pohybli
uvedeny
saud
cenov
počítají
pracovnice
pocí
nejhů
villa
step
##chyby
časopise
pevnosti
remi
nesná
vltavou
fast
##vard
##minu
verb
ciziny
sarkozy
krásy
poslanecká
tendence
kometa
umožnila
m2
vladislav
sagte
dezinforma
dary
vlastnost
##onomi
průmyslových
formace
účinnost
##jal
víry
kandidátce
movny
zhotov
černobí
hotely
madon
vysl
nábytku
výzdob
##dez
ruční
nesna
odběra
vystr
##zó
stranické
##smem
koaličních
gastrono
bloomberg
proro
hraj
skutečností
metodu
##guay
vyři
##beth
přestane
##jíždějí
smluvní
uměleckých
výjimečné
potřebných
smetan
stopu
protéká
tudy
větve
provozování
mnichově
synchroni
křesťanství
zařadil
##bles
kontroluje
kach
naviga
pocket
memorandu
jubile
##ión
trub
zprost
edward
zavádě
enu
todos
zvolila
barvách
near
armas
křesel
charakteristi
zpěváka
##far
stezky
joseph
socialistické
objednat
break
richarda
družstvo
buff
zapis
neboj
raf
programové
##zovaná
odboj
dialogu
rozbor
bö
marcel
trouf
departe
nun
výhodnější
frekvenci
##ра
převzali
##ěn
pró
reuni
ctilet
spotřebitelů
##vedlo
nebrání
padá
etapě
zesnul
divoké
geomet
nr
porce
balkán
mok
nezaznamen
pohyboval
gólmana
přineslo
firmách
odmítnout
banké
##nutá
zraněno
naprostou
odmítal
padesátých
poselství
slog
distribuci
průto
obojí
uko
sazbu
místek
rizik
předs
zamítl
vzniklé
zajímají
fenomén
přívě
průběžné
hig
ejnost
přítomných
zasahuje
##sily
udělají
pud
##mej
sezónu
čtvrtina
třídu
schází
kratochví
špioná
spadla
japan
vraždě
ondřeje
povět
jezdci
zaměření
snu
desar
pk
lokalitách
##lko
zachr
kaddá
náznak
jablonci
regene
moleku
omylem
jadern
jozef
##wick
sklou
porovn
krie
počínaje
##hyb
viola
proboj
sah
srbsko
##etta
ekaj
tvořili
úni
##anice
masá
slyšeli
laut
obchodníci
kritizují
libye
tempem
kryšto
domovů
orientace
gabriel
určuje
upozornění
octavia
##stickým
montá
vrácení
katastrofa
##ohs
odpy
devades
##ilech
##nav
říkáme
bobo
##ński
soupeřem
extralize
hotovo
dáma
nevypad
alkoholem
švýcarska
1931
frontě
##jun
managementu
vypočítá
exce
istanbul
maily
trumpovi
136
schodiště
kulomet
sázavou
stanju
vzk
podílela
tureckem
gazy
žup
vyšetřovatelů
školou
kompati
navy
štít
výstřel
jü
historická
ženami
alternativu
předsedovi
čtvrtka
days
1923
manévr
němce
medicíny
předávání
##číka
omezuje
splnil
cyklisty
proslul
campaign
alternativa
##tava
divák
vyhláška
recese
přístupem
zakazuje
zvané
ruském
potkat
ministrovi
149
peči
vyna
provedena
mailu
dopadnout
středočeském
##stopad
různo
dý
vylepšení
slušný
naprosté
hraniční
monarch
muzikál
letectvo
bernard
pome
příko
prohlídku
sü
##ures
bakterie
zamy
příroda
##taly
dominantní
zdokon
chemie
inje
##ways
losti
##orient
připomínky
raně
##děte
středozem
překra
##valu
financovat
esu
##plav
260
přídav
popisu
náhoda
slavit
očivid
nejlevnější
proyec
senátních
usmr
běžná
##kovicích
výnosy
##busu
silničá
svaly
dirig
utrpení
exprezident
ivatele
geopoli
battle
exploze
příslušníky
rychlou
##etz
rozmno
počítačové
##liná
kony
fiktivní
odhadu
civilistů
##fri
básník
úohs
registraci
výšku
mladíka
celosvětově
cau
kazy
hotové
multikultu
##000
nezpochyb
idea
kotou
1922
rating
kalend
nepřiměř
vydírání
##iro
odjet
vote
##štěný
utrpěla
zaujmout
chybějící
synovi
zodpovědný
penzijní
zahraničním
jedinci
vlk
odstoupit
zatop
teplot
symfon
atmosféry
kdežto
poloze
mužské
nervoz
nádvoří
mexiku
##donald
announced
256
jaz
úseky
noted
zatě
muy
sportovním
hiv
sid
##etou
##nesla
##fied
admi
registrace
možném
připraví
kosovo
legitimní
důvěra
spojenců
bohoslu
dosáhly
přezkou
##tia
spra
kádr
spontán
potřebnou
menšin
herců
holi
nefun
##antes
lab
##gate
realitní
##ان
##krat
stateč
střecha
rakovinu
tzn
bilan
podce
ryba
iku
naplnit
patřily
##loženo
##drželo
příbuzní
clintonová
##kladech
gum
##žte
420
##šou
tajně
schillerová
vejde
##ants
obratu
##íně
mam
##enem
upřesnila
##gner
podnikatelům
šly
harmono
relativn
journal
stanovení
platilo
##jížděli
brýle
vyzvali
duši
zavin
nedokázala
##rná
přilehl
raiffe
vydáno
netan
nálezu
organismus
výkup
češtiny
žijících
cibul
russische
překvapil
upev
lesk
##tující
exportu
horu
##act
sovětských
změnami
personas
bránil
usmívá
##ckey
hřeb
lhůta
otevřenou
kalifornii
lichten
kavárny
varn
komik
hampl
odkazu
televizního
september
chladi
nápisem
sana
heř
##tíme
miche
##tění
##livých
carl
chát
alg
jménu
varují
zvukov
způsobí
útul
nevní
odehraje
opencard
manažera
panely
chorvatsko
race
cigarety
kultiv
načež
fight
nejle
televizí
nahrad
messi
dohad
##knou
semen
##ross
léčení
desp
čerstvé
msk
atlet
conclu
1917
alois
časů
ff
bezpochyby
polohy
balon
přežil
zhrou
servery
ng
dopravci
##kument
##espe
bohem
zvednout
marks
značení
piv
povol
samostatný
##iditel
problematické
##ádí
uklí
putinovi
##chý
janukovy
prvními
navrch
hlídky
argentin
aktuálním
bour
nemusíme
chalupa
šrou
richter
zlikvidovat
138
koni
colom
kladem
neuvaž
vklad
střelce
družstev
iranian
marcela
kemp
rejstříku
male
základna
polských
shoda
američany
uno
name
odkl
členkou
##žitelný
analytiků
veřejným
otto
dovednosti
choroby
records
##líková
režimem
povodně
menšiny
soudních
dluhopis
lhostej
eurokomi
raiffeisen
rusy
##apadesáti
zaměstnanosti
##jížď
adatel
##řou
##istická
výrazným
manipulaci
odchovan
hlíd
##fte
##vadil
##šského
##telného
neexistují
sborů
procesů
##šle
nemocné
energ
sousedství
benedi
gymna
kenn
informacím
opinion
evropskými
transplan
pevnou
thun
neshod
##iser
dovolte
nieder
166
djo
jistotou
##ligence
úspěchů
hno
eben
luxusn
posudku
masaryk
ázer
129
kreativní
kolemjdou
následovalo
wilson
okupaci
beck
obratem
obhájil
cim
soukromá
french
advent
erno
založená
present
meziro
odehrálo
lahví
sis
restruktu
##jmy
katalo
úmyslu
##ecká
edge
vypadala
hovory
marco
nezb
##gana
##stop
dálniční
invaze
výuku
západně
source
struktur
převyš
dac
scén
balení
textov
plaz
dánsko
vysvětlovat
choreo
volili
literaturu
##valech
vyps
nepodaří
samsungu
přemysl
unidos
odpolední
vydávání
airlines
1927
antu
politickými
ideálně
neohro
lkov
získané
prázdniny
##ea
pseud
takoví
předkládá
skutečná
chemických
basketbali
zhodnotil
nedaleké
startuje
východně
##gha
párů
nechut
dollar
tuzemsk
clou
pravého
dopln
ústavních
zlínský
podepsalo
podezřelých
pacientům
rozkládá
andy
respi
kit
##alit
plameny
vladimira
následujícího
pronájmu
automati
##mírem
seit
nepoko
##phi
pue
excel
předpis
školení
firemní
mateřských
##icí
##tivnější
samozřejmostí
projevit
chytrých
kariéra
křiž
znalci
119
mimořádnou
marketingu
rozjet
edk
spartu
zezadu
popo
připravoval
pronájem
příjezd
životním
pozůstal
sati
rokov
podíváme
##rající
výpravy
navrhoval
poptávky
láka
##arla
##dost
členka
špičky
rušení
skandiná
místními
předpoklady
synago
trpělivost
žadatelů
ola
přistoupit
pocházel
ztratit
karviná
stanoviště
rent
šup
doplní
ibl
terorismus
zášt
zaplet
tup
rozbí
ztotož
spustil
gymnáziu
116
krém
pentagon
václavem
zpoždě
distanc
dřívějších
řeknou
ochla
enstv
##rské
##äch
nejblí
nejmoder
nabou
nešet
dobru
nevyhovu
odstartoval
promin
zábavy
##stislav
cuando
mlčí
faktorů
oxid
rodí
##enému
antisemit
důstojník
egyptě
advan
spekulovat
spoluhráči
frag
navaz
náru
mojí
sobotku
navždy
němečtí
corpo
přednášky
líbilo
cour
1926
##jdž
zakázat
symboly
petera
investora
kardi
groß
měřítku
obsá
brance
destabili
kend
zákonné
kolonie
faktorem
##toval
zkoumat
rozkaz
trofe
article
##anta
nepřiz
setrvání
sprin
křesťanské
doping
blond
upozornili
vw
##ires
210
jednotlivců
sýkora
nejvýznamnějších
čerstvě
##antn
side
muzikant
základního
##tona
žák
restrukturali
kart
ministerstev
interní
znalostí
sousedů
chorvatsku
bož
grant
lout
dojel
zraněný
vášni
##ývala
vědu
##rance
143
primiti
propaga
úzké
pochvaluje
počínání
dílčí
##řku
##lující
veškerý
anal
nostal
kamenné
bezprob
##povod
expedice
kaddáfí
hitle
přečtěte
##betu
euru
populaci
##bové
moct
astrona
##ńst
typický
princezna
svědci
pseudo
žižkov
##icích
situación
tiskového
zch
transparentní
lukra
bohatou
kevin
ace
##padě
uznává
##livého
sledkem
nm
prezidentu
rusů
protokolu
nemohly
zpívat
##álku
144
vládnutí
uznat
administration
usu
##hodin
přehrady
conta
litomy
mosty
sudet
zapr
pláž
##idades
zločinů
stěžují
##ets
##ein
vzbou
křídel
sorti
místností
křesla
##čeným
##denn
nabídek
spotřeb
henry
nechcete
zavedla
bulvá
adapt
živě
neziskové
frankfur
##ctu
neče
slibují
shakespe
##lovala
všed
##ring
nahlas
##havý
emman
##skiego
elektr
předchůd
tina
vydržet
##ždí
nadvlá
diktatu
postavený
worden
##cking
fér
otráv
##ann
últi
značný
šestý
potápě
určený
pramení
beau
##mysli
##market
poctivě
jezdec
znečištění
jídelní
##veden
univerzitu
ring
možným
motý
kampaní
absenci
hara
překážky
zleva
story
potvrzen
cizího
omí
osmdes
##členné
ježíš
vepř
zázrak
several
inteligentní
brook
zahájením
láh
nejkrásnější
desarrol
november
narozenin
potaz
ostřel
nuceni
opustí
oborech
inspirovat
hlubší
založit
following
##líček
toyota
přátele
iniciativu
povrchem
six
fungovalo
nedostanou
##emos
##rim
spolujezd
solární
spoluzak
nepřines
úroky
ventil
klíčovým
žralo
##maji
marii
čtvrť
##pold
dálku
naprostá
událostech
salv
vážný
##skiej
bém
126
vzpomínám
jisk
##tské
donedávna
míče
speak
ministryni
drtivá
##polu
##cía
zavraž
kopřiv
deklar
nespor
legrace
eurokomisa
##bry
budoucích
souprav
lehk
##ference
varov
aircraft
##válec
##vostí
desk
příbuzných
nvid
uleh
občanský
rusky
solidarity
jedu
panov
vzorem
ublížení
poloviční
táli
typem
ladislava
naft
##ow
phil
pořádání
prvnímu
krajně
erp
webov
##esta
inov
chovu
asada
##jahu
budi
svatba
spáchal
##kus
silve
negoti
csc
##chova
přitá
##skutku
ochránit
digital
journali
zahradil
pelo
uprchl
židovského
představili
zrod
##zovaných
bezú
vskutku
porošenko
tamních
poctiv
postele
předstí
tomášem
svatbu
declar
obzvláště
letné
prodejen
aktivista
jeff
poukáz
koule
poláci
královny
vyjas
##lence
neutrální
##váb
hloup
kontrast
úmyslně
##zován
zmizela
šťastná
dispeč
dovozu
zábavu
irena
takzvaná
dark
brun
zdůvodnil
politickém
inscenaci
##bergu
lessy
koln
carlos
důsledně
protokol
štěch
rozhoř
hodl
vydané
autorit
width
clas
schu
sekundu
přepadení
leteckou
minulou
znepokoj
ukrad
smlouvou
steven
rozšíří
vědeckých
certifik
lhůty
harris
##bosti
##ňského
row
použitím
nezapomenu
sportovce
vlasta
##íma
pěkné
inku
protis
úspěšnou
zbývajících
dlouhého
alovan
nevyhov
kamiony
slovní
zapůj
tragické
ami
##demokra
great
demokratickou
tlo
evropští
trestnou
střeše
dokáží
spoléhat
izolace
june
##ground
##anské
mafie
krych
uložil
násilím
čekáme
vzpou
druhých
pohotovosti
kyjevě
odboráři
víken
##mod
##čtě
##gun
kram
obamy
fuerzas
##koali
schne
crist
stěže
připravujeme
sochu
parkan
účinnosti
srdcem
kulturn
vedoucím
zastavili
zvyšují
chovatel
oplo
přistá
##enko
vyšly
dokaz
##ložena
budapešti
bohumín
očist
výtě
osada
##něni
bej
vrtuln
zažila
##jíme
neproje
##bari
kalhoty
porucha
bránu
zavádí
těsné
hudebník
českobudějov
gprs
139
záchod
mast
bezdr
kurt
nehra
nejjednodu
integrovan
kennedy
adresy
postará
zpěvačky
zik
nejoblíbenější
poradí
rangers
horizont
přestřel
ženská
hudebním
ule
##ating
zkoumá
western
2022
dimen
rozsáhlou
legraci
lord
pep
požádá
zraněného
có
##yho
##gru
bavn
kampan
obalu
nezby
##bian
výpadek
hlídací
strávit
viní
irsku
vyprávěl
dém
ea
vrhu
kolikrát
veliká
slovácko
slavil
znamenal
růstem
hoff
hranicemi
##dů
##něném
##spar
issu
##keit
zkoušek
zápla
automatick
žu
stka
##zac
znáte
##ст
poznámky
vyrazí
##elen
tahu
blíž
##tionen
duben
elektromobil
echod
zvr
norem
docházet
schválen
zadržen
opouště
stein
nesmyslné
zdvojnásob
będ
písmen
stavem
legislativa
rukojmí
dlouhodobého
##ujme
demonstrací
minulostí
shodně
australian
echna
jeskyně
putinem
udržitel
zhoršení
##ismem
řešíme
##cau
zachytit
seš
gros
##iš
zaplatila
falešné
genoci
##álními
opakované
dvoře
lídři
potu
následkem
lyžích
technologické
transfer
fungoval
philip
půjčku
##lite
pohyby
reformě
##ovač
organizuje
doplňky
pasivní
předpokladu
ochr
udržuje
detailně
choval
bala
lokalita
úřadě
domaž
##zší
projet
jap
zvýšily
##dosti
poznamenává
##bridge
keine
##vision
pola
určených
horáček
štern
rodné
olympiády
záhad
síně
soustředí
účastník
rozšířila
mladobo
poslanc
učitelka
kotní
krumlov
orchestru
faltýnek
frida
vzájemných
neces
týdeníku
mizí
nezodpověd
žer
sudí
týdeník
doug
souborů
mela
vybavena
obcemi
polák
##áteční
domorod
jahr
kreml
vydra
zlí
##wort
##káře
tamn
neskr
zanedlouho
zahl
duka
štěr
water
nula
nádor
environ
vyzbroj
antibioti
útěk
mladoboleslav
posily
styk
kolegům
##žijeme
##šice
nástrojem
identitu
schodek
prohlédněte
around
agenta
rozšiřování
denis
dějství
prostorem
komunikační
##stojní
lask
klausovi
poty
mete
střelbě
kvant
posiluje
##mii
hokejový
lidstvo
trpas
##kovaných
riu
korespon
nezmi
levicové
akredit
službou
nezávislí
reportáži
restituce
sicher
přeprac
ll
rosy
šňů
opposition
##page
greg
madridu
fotku
blogu
uvědomil
##jsk
vedené
jednotlivce
chrann
development
odstěh
komunistický
havárii
počest
výta
##dává
databáze
lásce
rádio
zamýš
argumentuje
sug
klau
složitá
uskutečně
acad
kata
##zovaly
zdali
vyhlásila
západoče
weiter
based
uhradit
nespokojenost
okouz
##pond
##žovali
nejpro
##pect
1912
move
zba
nano
##čkář
##ženém
švédské
uč
herect
neděje
zodpov
zásluhou
edpov
heslem
jezdili
roby
nejnov
katastrálním
procesory
own
hrály
vyznání
480
doufat
soukromou
převezli
##pot
nevrá
neopak
##psali
zajímavostí
rozlohu
dostatečnou
pákistánu
zobrazuje
účinek
kadeř
opí
panora
naplnění
ovládl
##prom
1910
totálně
##fli
kvalitních
medail
obsahující
##hledech
alice
pojistné
gö
##řují
výděl
##kovaný
mimozem
zákonodárci
kmene
reich
ate
zakázáno
kolony
dokážeme
solidní
zabili
marine
krajinu
council
benešová
ces
konečném
jakýkoli
propi
mostem
##řípadě
specifické
##ре
zrušila
antimono
projevilo
atrakce
lůž
##vatelé
##obou
spolumaji
belgi
kopec
##máhá
podstaty
##rozil
zapsal
pohor
zviditel
without
bál
##inů
##řál
munici
##kajících
školního
soros
pozad
osmifinále
samosprávy
dokládá
arri
založila
elektrick
ukládá
##ura
bankovnictví
zotav
znali
malými
peka
hlídat
##mera
##uch
offen
soch
čtvrtého
zemědělci
triumfu
prohlídce
koše
přesnou
pohřben
##dig
plochou
pilíře
veliký
privi
cual
porážky
zavřít
kamene
spre
nevylou
pomáhali
symbolicky
##šeň
nuly
vstoupili
schvalování
hodil
podpisy
stati
##covi
spojil
mario
issue
mrtvého
internetového
donbasu
##nym
československých
1911
dozvíte
wc
pašer
akutní
oně
davidem
##regi
##kovského
october
##bb
autobusem
odz
pasu
militares
##elová
zlepší
předčasných
káz
bezpečnostního
vlastníků
spousty
technology
nii
hlasováním
148
viseg
plet
náměstkem
boss
lun
rizikem
bří
celky
ryan
červeného
soudit
##strö
##lyn
projednat
realitou
liberali
protiraket
champi
příčky
dopravním
rade
muzikálu
pěšky
##čkám
špinav
podlehla
intelligence
minnes
vyšetřují
elektrárna
ruší
obránci
elektronickou
čch
přestěhoval
vlou
krk
figuruje
melodi
anglick
##lácení
##xo
davy
provozov
představovat
potru
zapal
ministro
zastávka
rsk
většin
havari
hově
jehli
význa
pras
pavou
průkop
nabídli
kdokoli
prodejn
jov
nasazen
##edo
tol
evy
máma
předsednictva
poradenství
konven
dovedl
navázal
připomínající
převahu
##berku
4000
nakoupit
farmace
holdingu
miller
ovlivní
ohň
##ready
zdvi
zacházení
obývá
prohlub
doživo
škodí
vykli
veselí
stravování
bezo
belie
nočních
vlajku
dolejš
bureš
palackého
řešila
statu
vyžadují
##centrum
známy
dalaj
caso
stý
vyroben
stanovené
initi
zažili
karlovarského
beh
rights
estadounidense
ross
kubice
izraelsk
etiop
stovka
profesí
##nolog
slovem
applu
reprezentuje
##nadě
sude
potvrdí
bloky
hatt
statku
irsko
posuzovat
ipravuje
##áté
skokan
namal
147
zahájen
##zs
febru
potravy
dostatečný
alží
##bos
vzorků
skalní
zlé
neumě
visí
připis
pocházející
fyzických
radovan
popřípadě
dara
sousedí
uce
pokusila
##řadí
despu
rumunsku
cenách
nedalo
cizině
##ño
paula
##žmo
##iniho
smůlu
přísnější
balíčku
tesco
zaměstnavatelé
después
rey
kanoný
golden
sper
položil
##pru
konem
maty
odhalila
odposlechy
##řovat
kolí
stačil
sousedy
##cr
sezna
##rovaný
dít
abdu
##hlík
zbylých
roka
expo
bará
poradil
pruhy
spjat
hambur
opozičních
odpovídal
nevyhnu
standardu
ledvin
vládnou
stávajícího
prošli
vrba
bojovníci
dopadu
kauzou
železnici
##nejte
olympijského
independent
olomoucké
obcím
žaloba
koncern
fortu
sond
brid
motivovat
vysti
úspěšných
pokouší
tuku
mpsv
finsku
##istického
trendu
rybníka
zatížení
souběžně
petrohrad
dlouhodobou
libereckém
nedokážu
důstojní
záchy
koleji
posteli
poděbra
ďá
##niej
pozorovatel
skaut
odpůrců
povinen
##wać
##enců
kandidátku
vyhledávání
##něl
alfa
daních
vytápění
sofisti
##sis
##amp
teple
zva
dotyčný
moza
netanjahu
mnoz
##pendi
##rnách
učili
nacistické
krásnou
starším
schy
prohlíže
odej
prosazování
##alizací
předko
sídel
náboj
převezen
ligových
podivné
brambory
diskusí
klasická
zkus
##čovala
blízkých
bava
ženatý
doufáme
odolnost
probíhalo
##ardo
vyplatit
látka
rodičov
figh
##sición
##ović
bydlel
linux
forem
dohodl
emigr
postavené
založený
plavidla
přepravu
laborator
filt
využila
hněd
speed
##orfu
tisíciletí
rychlostní
profesi
utop
##cted
sada
repe
ničem
2500
considera
a0
stopa
##ske
islámské
postojem
nymburk
pařížské
filosof
##atikou
nezúčast
dream
rce
doplnění
ptačí
##aky
zaují
##nier
##bej
beč
trojici
probo
##tim
podnikateli
partido
nemocný
abc
##house
hitem
##city
poslanecký
vrb
zvedl
žánru
spektra
##vemi
seine
přihla
podpisem
dosahují
obdobím
mrz
identity
nesla
card
neporu
pochlubit
guvernér
##xie
vládním
komoře
##zán
memori
případnou
podklad
bankovn
volant
##istky
sílí
květiny
radioak
215
lhůtu
úcty
výzvou
pásu
syndrom
potěší
misiles
autonomi
##ptý
stínu
hrozil
synte
autonomní
resolu
trikol
řádově
##edie
semifin
##orty
aktuálních
nenapl
slunci
##podla
##idos
frei
skandá
questi
emocí
střídání
obnově
směřování
partners
##logií
úkony
##ury
těžba
mírové
příčce
ipravovan
sejít
nero
opr
pasti
vyřeší
przez
polojasno
##láh
##lána
##film
komunita
margar
##piv
nebere
reve
particip
##terak
filmovou
mláďata
neš
spoluaut
##chův
barceloně
vzdálené
nig
müller
nemluv
samém
advokáta
sod
vyfo
telegraph
defence
výbušn
roger
##chař
hydra
rakouského
fotbalová
perfektně
rozvodu
##ávala
řemesl
ava
parkovacích
neznámé
došla
aktivistů
výrobek
evidováno
přilo
neplá
výkonnost
posílí
rádia
department
fiat
restauracích
primátorka
patrick
auditu
zón
sent
##ovávají
místostarost
eufor
phone
nepřizpůsob
cestovatel
umírně
karoserie
##žene
prozradit
vnik
blázni
nálada
všudy
memorandum
##ather
iznal
výsledcích
klíče
samého
lukáše
##anz
zkontrolovat
citel
gel
bj
zasí
cannes
šmí
policejním
why
bylin
##emu
udělalo
utili
krista
koupelny
##láp
pouzd
##árna
email
##sb
##xí
pope
2030
ázerbá
ideo
typick
dólares
kult
uvolnit
nkov
josé
šichta
##buji
vystěh
sportovi
postižení
kamaráda
nepode
counter
thril
liška
rysy
##utka
nukle
january
##damu
mluvila
##čenko
gren
toa
chole
nezávisle
##ameri
strike
pravu
bouřky
záchranář
bytost
krajní
lékařka
zajišťují
pěcho
##bilidad
##ráty
hodnotil
abstra
##kers
stoupla
kanaď
rozčil
albán
novele
upí
francouzskou
femin
podmínkám
drábek
standardy
pohonem
phoeni
vým
officials
isl
##manna
duba
surf
čínskou
znamenala
korupcí
rozjel
billboar
vyřazení
stěžuje
ikr
##itým
rozpočtů
kví
##oper
rozumné
přilé
rose
vánočních
fm
aktivních
nahradila
spekula
##jon
střechou
legálně
##kie
church
nerozumí
speciálním
vedoucích
gazprom
bodech
hrubé
klimatické
potažmo
##oté
kilogram
nehledě
dramatické
fascin
osamě
##jin
vile
##píše
rozb
rychlá
skutečných
infrastrukturu
obyčejné
keller
##látor
předvedli
nežád
vybaveny
rozhlasové
dog
##rovali
prk
holka
šedi
strome
ázerbájdž
vadilo
obejít
zákoník
already
proběhly
taylor
stáje
manchesteru
##leze
vlastene
##kazuj
من
##rism
nikterak
dopravou
nedává
dodatečně
diecéze
zahal
přebí
share
zkomplik
onkolog
studuje
pomůcky
prezentuje
ans
aš
sezn
desítkách
zdeň
dovolí
jugoslávie
##edia
boční
požadavkům
sféře
pervit
mysliv
##řském
jero
##hami
pracovně
antivi
kulturním
rozšiřuje
záznamů
wri
odstar
##sány
nemocn
agenturou
##pána
rumunsko
zoru
##grafické
rozdílné
sád
netop
##rovnání
vstupn
jednoduchou
##table
kuře
umy
uprost
komentáři
šumavě
obrazem
soupeřů
arsenal
škromach
výky
vynález
kolekci
obětem
propagace
čemž
rozumu
čtver
tajemn
kapele
##čiště
řeku
philadelph
radn
eliška
plé
směsi
místu
poločasu
nú
nečin
##pulár
##rani
podniká
mundi
bostonu
hir
robc
pokorný
age
vnitřního
vytrval
ecb
monitoru
senzor
antonio
váze
##hlejší
balkon
ohňost
hydrome
dostanu
##íka
haš
chaloup
zpest
erkl
vizuální
zdůraznit
muslimských
nezdá
##opat
emil
##tz
ingr
ero
sucha
ložnice
přírodu
##chlost
##olo
chief
zloději
zstv
joint
##ار
nasvěd
rio
onemocn
jakéhokoliv
zhot
vztek
labu
##sledek
špatném
přímého
karlovarský
oš
součin
stříd
rakousk
čtvrtě
diskus
##čkovou
maš
věřící
návštěvnost
úsvitu
tmi
sant
baž
čtvrtí
obžalovaných
nezaměstnaných
nelíbilo
angličtiny
zkušeb
cod
vazeb
prezidentského
uvědomí
manažeři
##stoupili
občanskou
komunist
trénoval
nájezdech
##míst
view
1908
##az
neta
kopci
##šťál
dětská
views
nadprů
##bourne
demokratický
favorita
stojn
influ
sliboval
držela
zakázkách
zastánci
odpadů
hul
somál
kariér
definice
vyobraz
##sách
bilionu
favoritem
bursí
bulharsko
jihočeské
dávku
zrani
hrdinou
elecciones
appe
předpoklad
moravskoslezský
##fs
čecha
srbska
oblíbená
nádherné
kluka
populár
milimetrů
rekreační
úhlu
bojích
nestačil
pohodln
loňských
stálé
viktora
hůl
##radu
##ency
zavede
moravu
varů
demonstrantů
limi
povahy
izraelský
##enské
##pustné
vymyslet
medvěd
pasado
pohlavní
vzácné
obžaloba
diplomatické
tekut
electronic
bab
nazvané
##šovský
chodníku
tlačit
přetí
balet
franç
celove
ukázka
brož
ei
uděl
enor
gut
decem
ochutná
##kandid
přispěla
aktualizace
definitivn
nájezd
bloků
vzkazuje
pato
prapor
pist
betlém
pořídil
vyčist
azen
švi
tisíců
kontaktní
protestní
ijdou
##árně
kritikou
dotkne
##ývalo
dusí
vypov
kolaps
nastud
odpověděla
exten
bárt
kelly
vich
zlod
zov
##sig
oznámilo
životopis
společní
nezm
pravici
horsk
brána
promi
##šín
vítězové
csu
profi
věta
ekvapiv
rekordy
obavu
lavičce
vydělal
semafor
zasti
##fort
pachatelé
amster
futu
hydrometeorolog
neos
přepis
filmová
městském
nákladních
velitelem
krátká
stěhování
japonský
chápat
suchý
volnou
jedničkou
tolerance
podzemí
věži
plzeňském
charlot
zahrála
zeitung
omezování
trojúhel
interaktivní
sezonou
stod
##stávají
lewis
lii
##gur
puč
projevila
srpen
promyšlen
zařazen
vrtulníky
##káže
šabat
nabízel
syrská
vynikaj
zvládla
životních
reálný
neak
pahor
františ
zábradlí
šárka
##řeným
prosadila
nevíte
planetě
##fle
lena
jižního
správným
úo
##mond
sumy
sestavu
tranzit
skutečným
umoc
napoleon
##leta
nadměr
##orychlost
ulicemi
nevyt
celoživotní
zpravodajských
oltář
zábava
dopla
obviněných
nevěřím
navigace
##hamu
pilota
pater
mej
rozdělena
teda
nováček
báje
luděk
lö
##ývali
##ute
zakázal
zpoma
oslavu
trip
wis
zásadních
poradci
vystudovala
##titu
##žp
musil
##lins
stráví
jihoafri
včerejší
##see
zdí
tanků
ance
silného
nalezení
crime
uchová
točit
spodn
jednoty
labou
specializuje
klesat
negativn
operačním
jamese
##enčí
taktiku
##kodra
fernan
kid
tle
upravuje
suché
asegu
##stale
zbylé
odhadem
počítáme
skóroval
nahlí
##pustilo
##mont
transforma
příznivce
drů
sesu
must
úplný
čistého
barvě
area
rozko
##vival
líder
inci
investičních
inspirace
obdobné
stížností
benedikt
výdě
tréninky
soupravy
pracujících
internetový
double
oblastní
absolutn
dočasné
gent
nastává
zálohy
rozměrů
ago
paro
vyloučeno
režisérem
burian
neuro
mobilního
robot
vystaven
zimn
zanedb
čip
process
anonymní
##kovské
##terape
pocitu
vyhodnocení
frekvent
bohemia
credit
kk
páteř
vysílat
##istickou
podílejí
koň
##pected
##íku
otevřeli
##jnar
signi
správním
tie
dneška
městečka
těží
vedena
##qui
zoom
hü
disney
atentátu
vyžádal
neproz
známí
kontrolního
vln
nepřítom
bílkov
forman
asopis
živočichů
nane
basky
moderním
vlivy
toru
rezid
splácet
ozval
ztro
podvody
úplatek
pobou
vyhlí
vola
dvoup
sledovala
cenn
sváz
letecká
neznámého
tres
starají
agresi
dojed
umožňující
dorazilo
neodpovídá
mrakodra
herectví
převa
nízký
přestupek
medved
jindřicha
skupinami
vysokém
zmíněného
plíšková
reco
východních
zkratka
čelní
bilate
tvrdá
pochopili
územím
černém
##ěna
##gle
popularitu
posilování
identifikovat
dvací
slovn
rostlina
december
tud
little
block
šara
osídlení
vykres
konsor
piz
odhalování
##ako
dohledu
prověřit
hotelů
samotným
protagon
důsledek
kytaru
##ци
##tickém
##ago
provozovatelé
standardně
normalizace
nadějí
výrobou
londýnské
laboratoře
správou
departementu
rozstřel
nevyz
halík
##dades
historií
psychické
staří
director
myslov
tvrdou
istanbulu
novi
konkurent
pelhřimov
##ára
štras
hraně
začneme
july
kolegu
kvót
zápa
notebooku
slan
ihre
shrnuje
prsa
lacin
condu
balík
přínosem
drůbe
určitým
obráz
utéct
theme
skupinách
italských
rusnok
elektromob
##yó
diví
sklu
##zuji
a3
ukrajinou
zachov
romské
##centra
slavnostním
##anová
stanovil
romy
intu
státnímu
doub
společným
intervence
anderson
předplat
nejch
podezřelého
##letému
morris
řetězec
jaderného
zvláštního
poo
kupodivu
beta
doln
titulky
přestali
beran
probíhaly
ministru
mešit
asocia
mv
jedi
ničení
chtěly
ukrajinci
poloostrova
komárek
mizer
##dární
reagují
chybělo
zvyklý
ojet
rozdělí
##listů
sexuálního
##menou
postaral
##eton
brunt
jimkou
sanders
##lezl
sedmdes
ite
přivést
rené
klausem
vyčlen
vysokorychlost
čistí
costa
otakar
##bara
studen
##irmó
prodloužit
impuls
deter
anthony
opi
platformu
jihočeského
úpad
farma
pokryte
reprezentantů
potrubí
vlastnil
sledujte
dostávali
traum
obrátila
podstatnou
litev
nejkrat
##cé
cihel
sklonku
peugeot
norman
hypotéky
primární
československá
korean
afghán
##jazy
hlásit
švýc
slabý
ligové
sebastian
niger
odklá
hodnost
##hmú
podvozek
edb
kritizovat
kočky
kontroverz
vtr
vývojáři
zónu
nechají
further
##ostech
plynů
vysko
zapojí
potkali
##ložky
vysu
##motor
vyše
kojen
konkurzu
mikrofon
letectví
vchodu
předběžné
zraněné
univerzální
zhotovi
říma
##zin
maleb
nepřijde
obdrželi
zlobí
demokratického
závislé
theresa
special
frekven
chemical
magistrá
zvaný
napadne
odpovídají
##media
##žíte
dlužní
fóra
participa
znakem
hongkongu
zemědělských
woj
pásmo
syrien
kamionu
předpokládáme
chválí
buň
wikip
šen
compu
katastrofy
##cado
ležet
citlivé
##štěná
slovenskou
fn
##nas
##cionální
komunistick
##hö
masové
##cházím
vlajka
zjistilo
spy
sáhnout
plen
##ovem
střelcem
##jou
zapomenut
##cally
lead
##nějšími
obohat
přehra
nilo
projíždě
telefonicky
odůvodnění
adama
bakala
králi
bankou
okolnost
momentu
polemi
kann
tón
tajná
uložení
herečky
elektroniky
sbírek
nalezli
dell
nemluvě
prozrazuje
vlastníka
alian
fara
vhodnou
particular
pověsti
##evropské
přimě
hodnosti
umístila
uspořádat
college
pohro
vracejí
nastínil
##lovaných
bytové
rusos
##och
docí
podcen
obstru
##cken
hostem
##ppy
účten
stáhl
zákazníka
prošlo
přep
bavil
netrou
nestá
draž
radikali
##ously
postě
dobrovolníků
doleva
zásobování
spokes
##rálních
smutný
jemce
soběsta
reálném
jarol
famili
vyrovnané
##nán
polohách
bohy
obchvatu
sůl
klubové
mužům
dodateč
výtvarné
hodu
dalibor
dron
##lida
cítila
vstupenek
teil
špičkové
chaty
znova
poškodil
##řemýš
##obí
přehlídky
zory
litoměřice
vykaz
inver
bezbari
rozdílem
medio
investuje
melodie
patřící
republik
olomouckém
dolních
odměna
speciálního
zadlužení
naráží
nejcen
ptám
porážka
nokie
noru
lidstva
britain
poměrů
koncertech
číňané
dry
sousedním
schwarz
kovů
850
hany
uhli
kosova
venkova
pravil
##štejna
zmíněná
none
tsi
uzavře
krádež
##55
čísle
pamatuje
lže
říkalo
syrských
bard
spojenectví
zmani
vražda
pravidly
zamezit
snů
pohledy
##bei
šéfové
umožně
obžalovaného
cítíte
##phy
roušky
merkelovou
##istick
datadi
terape
lock
barcel
očekával
okla
nema
##utt
##inus
##hnete
čechům
##ugu
##cující
vysp
propadla
rozsáhlá
##stov
dvojnásobek
potřebná
forum
##ordin
emigra
jízdenky
přiblížila
kontaktovat
zmínila
nenav
zkola
##tána
studentka
orchest
jacques
##řiny
##stane
nenas
okny
charis
mří
##scher
bavíme
##ix
##mová
##hradi
oti
##zovalo
##biln
přeháňky
vycvi
dopadly
nicho
##sing
##geni
uvedly
health
zro
##ose
mostů
inflaci
frá
zanedba
##mers
věty
vald
dodávat
adekvátní
chlá
šokující
lovo
ró
later
##quía
skály
karik
opevnění
profesionálních
pohromadě
netají
zemské
vín
regierung
services
skladatele
##ei
poslaneck
konstrukcí
kolumbi
zapří
otví
labourist
eleg
účinné
vojsko
porque
všimli
vymo
láskou
získávají
svátku
sněm
##quier
mediálně
tů
riziku
vibra
nevyjád
tureckého
hladinou
##řely
victoria
oznam
účelu
vyloučen
momenty
krajan
zachycuje
donde
prostit
debutoval
echy
navenek
sdílet
federal
metrech
##core
posk
dvořáka
prin
domovní
remain
institute
jihočeský
janeček
##dánu
paralel
zamíří
janoušek
otočil
teplicích
krachu
specifi
formul
mean
trikoló
##gard
potlesk
starob
resul
rockové
edsedy
zdobí
oběťmi
jal
vystoupili
zimola
neot
relaciones
dobrovolných
integr
movn
posy
myšlenkou
dostáváme
##vra
##livým
úrokové
negoci
##ен
šéfku
##advacát
stanjura
následků
marvan
uzavřeli
dopoled
semináře
chlape
vyřešení
nasadit
svobodně
detroit
nacházející
ibm
začínající
della
centrálního
##rativní
úspěšnost
směřovat
střelba
libanonu
aspo
překvapivé
sněmovních
##ticos
připojí
organizátorů
sher
knižní
hitlera
prodali
nátlak
praví
train
léčit
praktick
##jové
estup
popt
výchovu
##nig
společenského
hid
spokojenost
šafář
desetitisíce
##cp
sedad
common
##chne
postoupit
teli
fú
obnovitelných
přesunout
růžové
focení
amerik
riskovat
poeti
našly
neodpoví
presid
ocenit
segment
nevol
miloši
##čtení
svatební
konfede
1913
zie
señal
##jský
##liche
podpůr
zabití
michel
hrdinů
koka
označili
clava
zastaven
přispěje
četné
mužstvu
nepředpo
posudky
##schaft
##gary
invol
diktá
nováková
sporty
zdlou
ovna
hrobu
šíit
zákroku
eurozóně
prvotní
actual
##deau
zničil
gul
vyvol
svazek
doufa
projednávat
dre
##kovaná
takzvaně
nestačilo
zaš
vlastností
udělám
významného
potřebovala
imun
algu
zus
bateri
průhled
##členná
##tee
razí
zdravotníci
##book
výkonné
inspirací
citizen
pistole
krč
nikým
berlu
stephen
citu
jedeme
##berka
##ping
chyběla
pátém
tnu
bratří
##ód
přesvědčena
etr
ohledech
překročení
nehrál
působi
pozicích
##über
nají
začlen
znovuz
previ
smířit
masakr
projekce
habí
usou
naznačují
překladatel
dorazit
lázních
##col
uns
##vinut
sunday
umožnilo
mrtvý
knížete
protivn
##enne
svatby
vládl
stručně
británi
kučer
matemat
dža
##nát
nevíd
pátou
zanikl
detailů
ujet
##cely
ateliéru
bulharsku
skála
inovat
deště
varovala
1907
zpravoda
jedničky
ilustra
##při
zeleninu
jevišti
parazit
kard
čerpá
massa
nesmějí
jerem
zahrnují
zkusí
vyslal
ekro
nepomůže
arabia
účetnictví
nejpopulár
cenami
##wią
reklamn
rozpro
svol
zdejších
##barev
přítomen
##rážel
odhlas
teče
##ánského
rychlého
##teil
břeh
čepi
počítal
scen
##telům
každých
špičce
kanadský
bezdrát
fiskální
mosu
hotová
táborech
vyžádala
5g
confli
kalendáře
kdej
zlepšovat
posud
povy
visit
peš
matthe
zúčastnila
kell
##ette
pekel
zamyslet
zhou
tance
allow
##rostla
kritizovali
##furt
sestrou
dešti
dale
segmentu
filharmonie
mrazu
##smě
nepromě
protisměru
kovy
vom
pít
stavebním
ah
attemp
pociť
target
ijet
mládě
amnestii
##meni
trio
##lino
rostislav
španělská
samostatných
tradic
kryštof
nepokoje
opavě
##vnější
olymp
přesunu
spokojená
jd
##šího
zjištěno
apol
vydávají
poptávku
##hej
vicemi
nezak
monday
namě
##hlý
nejlevn
vítězka
lesn
tiskovou
##atá
budoucím
děláte
nemuselo
obranné
racionální
vlastníci
decent
##zé
##čítat
ida
##fall
omezena
anglickém
kritický
noze
oblačno
důchodci
##لى
nakaz
soby
hvězdu
naléhav
nesouhlasím
possible
##vedly
oře
nálady
##mela
záchranky
##spa
vyrábějí
homepage
lokomotivy
vlas
pojmenování
hrudní
písemné
pik
centrech
##igen
nedostatečné
prohlídka
neúčast
friday
věží
omluvit
bezpilo
##wel
sobotním
zabal
zahynuli
posty
otřá
těl
nepravidel
dodavatelů
kotr
lihov
zámoří
irák
spartou
relevantní
amé
pakistan
schopn
školních
absurd
plavání
cedu
trvají
kp
pořady
##arily
leasing
1600
conflic
##činu
tkov
zápisu
přitaž
##díte
gew
běžném
##nea
##zenia
vyjel
bloká
prezidentskou
pohybovala
mechanismy
primera
##chs
action
lobby
rö
slz
nili
existovala
selhá
##chlo
##cházejícím
narušení
psala
hrající
kyseliny
nosu
zvedla
dynamo
věrohod
chodov
tré
důchodového
pierre
žádní
senti
celi
masarykově
divadeln
ariz
jezí
nacházel
zakončení
jakož
postel
komunistická
přechází
##vici
síni
přemýšlí
cykloturist
operátora
##štěni
##cano
mrazi
vznikaly
bull
pardubické
námitky
berlusc
odpovědný
dozvěděla
nastupuje
##licit
ordinace
střída
neocho
prona
použita
food
josefem
počáteční
abu
prokázal
nezku
přemo
okoln
komisař
afghan
alfred
celému
syl
series
sehr
vaří
nájemné
trůnu
anarch
marsu
omluvu
neuvá
dmitrij
shu
externí
pohřbu
consider
pochvaloval
idru
nenechal
jenni
##wych
##kupe
hlasitě
ovlivňují
continue
tělových
sídle
iphonu
zmínit
vojtěcha
tablety
hercegov
authorities
ideálním
dnost
textem
hovězí
kladna
edice
zavádění
grip
##orov
přístro
sirot
norim
elegantní
jind
benzín
rozumím
komplikací
laf
accu
winter
přehnan
spojeny
zlatého
výtrž
podstatu
vajíčka
načer
bezmoc
zmap
spektrum
specialista
ervnu
vyčleně
půva
operátoři
hladce
nejedno
##prese
půlce
pilotní
konfliktů
odb
středisku
signály
artikel
repu
kurátor
franco
claude
odlišný
setkala
židle
nemusím
zwischen
vyměř
kompres
nákupní
rozčí
wieder
algorit
suggest
bohatě
koncip
izp
sté
přikry
velry
##zována
nekal
fotek
pohodlí
silničního
sebem
kmeny
vypracoval
poledni
malby
dieser
kár
omezovat
železné
lůžek
##hač
federálního
##orump
bezkon
bauer
umím
obrovským
procesoru
vazba
leoš
volali
##late
pěsti
zabývající
maraton
gry
##začního
expozi
330
automatické
nejne
přirozenou
##žkami
postře
##lehlé
postupné
používali
polní
porušil
brian
4x
##miliard
továrna
stěžoval
hamburku
pohledávky
poran
##řici
klip
fabia
##anásob
##ěný
záchranná
agreg
narazila
zrak
1848
##dynami
discipliná
nemocni
ahora
122
českomorav
bytech
řep
##ráním
druzí
stoupenci
právníka
##eckých
##oci
##ración
nevede
polito
připravená
confir
přichy
neurčit
meg
povinn
nasy
uložit
známa
manažerů
absolvovala
nanej
podvečer
vysokými
šedé
barac
agenti
miliardář
činitelů
3g
tai
usvěd
velikostí
##fak
následovaly
úspěšní
půlhod
ponechat
prospěšné
karlovarském
volají
adavky
gruzie
says
milov
považováno
divizi
žele
časové
sedmý
založeno
piráty
násko
památkou
wikile
podobném
poloh
němeček
stříbrnou
vrstv
kritizovala
rekordních
papíry
arts
rozlišením
rakovinou
hračky
trilo
inaugu
henri
turistických
##uscit
dohodou
větu
pozemních
albá
zopakovat
kalifornie
##was
silvest
zaměstnavatelů
kají
nechápe
závislá
dojmy
exilu
nepůsob
turquía
výbornou
thom
##idní
ostří
terénní
půda
rozhodoval
odvolán
čeština
odby
nedoz
statek
##ops
damas
konzervato
formát
zapojili
chystané
wikileaks
alob
obrát
reach
rezon
dluží
olympiádu
boli
##gación
parale
nevhodné
podíváte
zanechal
stnavatel
nepřetržitě
potomky
fasc
sedma
pneumatik
jedoucí
zrychlení
nevypadá
kamarádů
úřadům
benzinu
ataque
horního
hřeben
opravě
kostelem
ústředního
##terorist
zásahů
vyno
##istas
záva
sahá
##atiku
řecký
poplatníků
náčelník
vyhlášena
bitvu
venezola
bereme
prohi
zkorump
##lichen
létat
oblíbenou
##tujeme
rameno
instagramu
architekturu
portugalsko
response
přečetl
probíhal
sbírce
nakrá
směrech
vracel
alu
dělení
kroměří
řídící
odehrát
rab
vánoc
nintendo
přízem
řeckého
uši
nedají
##letém
##gang
budějov
kupn
##líkem
bezvý
elektronicky
zaznamenaly
právníků
##číková
##advací
oceli
##átoru
hospodě
bezpečnostním
grammy
komín
srovnávat
svatbě
patch
intervenci
aféra
nenad
osmn
administrativa
##ládní
##lku
spiknutí
niči
norska
vytvořen
aspekty
větví
chutí
zatkla
rostly
administrativy
středočeské
tejc
demand
hezký
čestné
##žným
##anie
horké
polohu
potomka
##enský
poche
poklid
ukradl
posez
kladi
nepřišel
dostupný
equi
pilotů
nemusejí
živnostníků
splní
uniknout
kristýna
dsk
##mez
sunnit
podlaží
zvláštním
baron
manažerka
##nicky
##lině
dohrá
##vědět
přidané
porodila
takovými
povedou
fyzickou
slíbila
spokojení
oběhu
získávání
ocitla
hovořili
##bory
lel
závěrečném
##cového
huri
ddr
##ekonomi
primátorky
ondráček
výjezd
nepřehléd
buzn
elka
pána
corby
hybridní
##aři
##rium
mantin
detailní
tabule
unit
trestnímu
kapali
žádnému
získávat
odcest
kolejí
clu
drt
queen
doporučují
levém
nabízíme
dominuje
tovn
penalty
nestran
navštívili
poznámka
mba
##lag
laud
čáslav
##rozená
východi
parádní
deprese
disky
obc
##stiku
nejdůležitějších
sféry
pravá
letadle
zoufa
měnové
marty
patron
lyn
tatín
týrání
vzduchem
rozsáhlý
vodního
zprovo
nenašel
přístupná
výrazněji
grupo
farmaceu
spas
##strova
smíšené
proba
vzty
zkusil
akciov
farmy
stříbrné
spustila
fueron
raketop
hradit
ps2
lte
letům
průměrem
##oma
##linou
moska
otta
klasického
##ental
dlouhém
cení
mú
hostí
znaku
nevěděla
vysočiny
fuk
majetkové
oslava
по
##tově
řádech
resuscit
slalo
vady
vyberte
nápadem
veletrh
kyjeva
jennifer
ropa
aristo
boboší
sejdou
švédský
nacházela
##stku
uskutečnilo
dnut
arena
judi
googlu
snowboard
##boxu
##nau
kosmonau
erne
vítězného
bytov
tsu
žár
sezón
##skot
md
přála
spolehnout
##nava
chováním
##leným
pavilon
koupaliště
vítek
množ
blížící
dorost
dohodly
ris
compani
čsú
vyprov
skle
dubli
teenager
cze
procentní
udí
uzavřená
tlucho
došel
tili
odprac
zmizely
nezávislá
##sr
bratry
zlepšuje
příjemný
##žního
modelky
yo
##nung
pouť
umělecký
##kru
##orta
voje
146
prstů
kše
##lonu
naval
bart
tatínek
osi
oddech
prarodi
##chii
coalition
neue
přijata
velitelství
akceptovat
##boly
##nehmen
parť
povstale
oblíbeným
nevadilo
##peci
prose
jesen
encu
pardubickém
kavárna
accou
letadlem
uzávě
velcí
transform
podněty
##anos
plánem
sleva
nepros
pravdě
krajském
ency
opakování
systematicky
fenomé
liverpool
##ين
antar
lékařskou
osvobozen
thor
##cházku
modrou
bulvár
zbabě
##ischer
baníku
hlasoval
reálná
kj
klon
protipovod
domácnost
spolehlivě
ucrania
glas
úspo
šil
posl
vlasů
vaň
prozent
pompeo
zdechovský
vypracovat
##etr
zániku
vyčerpá
ludvíka
e3
##vl
democra
nafta
##esday
entertain
##účel
dánsku
rytmus
amena
kauf
##itelný
pořádají
židovských
rku
lístků
rukopis
iro
mw
##ózou
některého
vest
šte
mírný
zvážit
nejzajímavější
havlovi
andreji
pódium
vč
ropu
conver
vondráček
zatepl
##style
spekulovalo
vyrobené
těžbu
brigád
recykla
mimořádná
vnímáte
náboženských
koordinátor
wimbledonu
bau
chaosu
nejslavnější
etapu
boom
napřed
restitucí
prokurátor
úřadech
pomníku
vykři
##enz
principi
raiffeisenbank
##coval
společenský
ostro
přípravou
vykazuje
bytových
kritérií
islandu
dosavadního
fórum
kandiduje
oboj
mluvím
literatuře
bie
alkoholi
##budou
řeho
chorvatska
defenzi
uss
##jely
nations
letecký
dragon
##výhod
idlib
radikálové
nápojů
tehdejších
zájmům
výslovně
##agu
jand
horních
jednotlivá
lístek
##plor
ženský
ptáci
zabývala
hraju
čelil
druholig
obrací
označován
calgary
eznu
##rand
focus
hledáme
pořadů
vyvar
dkou
příbuzné
##anov
nesrov
připomenu
spál
fatální
ocelá
slon
předběžně
##akov
převratu
přijíždě
irácké
##čící
profit
chudoby
stráže
town
synové
hygienické
nezjist
výběrem
supermark
architektů
seč
synov
##text
nápravu
cos
studovala
sev
platili
cyri
nc
obchodníků
rázem
nebezpečných
přijedou
pouhou
##říd
ted
narazili
cizinec
nálezy
word
##chám
diamant
acer
naváz
##stika
spojeno
údržby
zdokonal
platbu
regulovat
rolích
conser
jmény
##hlopří
nastupoval
grafiky
##šů
prohlášením
kamionů
věda
vojenským
vážnou
##fá
prosinec
pohřeš
odstartovala
leccos
dramatu
spojeného
schody
odpočinku
sistema
rosyj
##nor
andrejem
provdala
sousedních
sos
misí
pěstoun
cc0
##wd
##pravedl
tvůrců
concern
pozůstatky
tuesday
vrchov
##inecké
spojený
uživatelům
bankomat
myl
šperky
venezuel
krnáčová
vznikat
přesvědčil
vylepšit
fundament
##šků
příslušný
differ
sezení
##kuřá
operátorů
zasahovali
upad
starostu
neoz
salon
tweet
ubo
##ilov
inspiroval
ctí
##xem
časech
domovy
milošem
sestře
souvisejících
vypát
životnost
nahl
jize
vykonává
průměrnou
bratislavy
advoká
vyrazila
promluvit
odpůrce
odesla
evangeli
kolíně
určí
pokl
tap
turecká
dočkat
señaló
##níkové
evez
komenského
##32
odr
chytrý
strong
meš
hlídacípes
záměry
opel
překážek
mä
hokejista
spisovatelka
zabij
ambiciózní
zó
vysy
minule
popularita
##how
depor
noveli
hardware
##śli
iluze
##hrt
našlo
kinech
odhalili
friend
výstavní
tvrzením
artef
několikanásob
tent
##itelná
znehodno
##mula
detailn
netušil
vězeňské
návaznosti
nedohod
dodávku
adopt
neud
##zik
pražským
nepovažuje
neskuteč
letovi
##vej
michalem
lidová
silných
alias
##briky
zela
##biku
fischera
##myslela
limitů
sut
zvolena
zaměří
##covým
sestru
nadšený
směřující
##vené
##šský
uprchlické
visegrád
artefak
krů
consult
##anec
chvílích
obávat
hrabství
half
hruška
hluku
rizikové
ebuj
rozvinut
přístupné
zavolat
vybudoval
ranou
##čk
##odi
studijní
housle
americkými
frontu
renesanční
uchop
##átko
sbírat
úpravou
##cce
##bák
demokratick
##ares
zdravého
menschen
materiálem
bednář
kostí
##tvrté
primer
mexika
zařídil
nejprodáv
f1
nedůvěry
ohlásil
obdé
květen
mezinárodně
zamo
napaden
dobrovoln
debak
##uše
filtr
leteckého
hřebí
maxima
republikáni
##mínat
multifun
zodpově
zpožděním
nezpůsob
platila
dekret
bezpre
zkriti
berlusconi
předě
schopní
1915
vzpomínal
##ula
lenky
begin
zdravotnická
nakr
jednotlivci
rozdílu
##point
##čik
nepřítel
opilý
ster
nade
nekoment
producentem
despite
nežádoucí
##dič
sjezdovky
integrovaného
ark
zavedením
##ря
vaším
papou
spln
prosadili
idvideo
výstavbou
doprovází
šof
odborný
##portu
##yed
zamrz
architektura
ktor
rnou
diskriminace
##ass
marc
expremiér
##anky
##inga
stahovat
kdekoliv
kreu
awards
vypnout
výsledkům
koloto
elektrotech
uctí
kendu
##tium
váhy
##ungs
objedn
evidentní
slzy
schodech
nabá
zvykli
dezinfek
variantě
february
ucházet
haška
rychet
obhajovat
html
studiové
##štá
rodá
##berta
dálky
##rovala
##ativn
koktej
inklu
chodím
vt
nezad
propagandy
vyrůstal
podpořilo
vzděláním
ochránce
rovnost
umírá
startoval
mcca
ptají
herecké
chlapců
kompetenci
kufru
cargo
##leň
nepomu
venkově
spolupracují
##gové
europarla
svitav
kávu
oxidu
##cja
##tík
požadavku
rozchod
cover
idostrova
chovali
věcem
nepl
idrubriky
zeli
jdete
univerzitní
vyrovnaný
nějakému
rybí
##atos
vědomi
nueva
pětadvaceti
##natý
##skep
##krt
ostravský
hrdý
zareagoval
wednes
dokladů
podd
gotta
užití
přímým
##érem
úv
county
nereál
nevyšlo
##bed
amid
doporučuji
##ien
cyklista
wirtschaft
výpovědí
terapie
případném
##sula
obsadit
straka
červí
andere
tichý
syrského
cut
leno
vajec
jednotlivým
úspěšného
živel
upřesňuje
pokrytí
mayová
opětovně
vteřiny
diskriminaci
frankfurtu
šimon
auty
vypovídá
monarchie
##уб
soudním
ameriku
change
výzvě
kupu
distri
bc
##louží
patřili
nenajdete
pozdní
zajímavější
mluvíme
wednesday
ředitelky
echo
centrali
slavnostn
vůdci
jeruzalém
rudolfa
zjistíte
tmavé
vzorek
jakéhokoli
městečko
propadu
zajišťovat
##ašedesáti
rosen
##haw
krejčíř
##ticích
soukromým
vuel
agrá
výrobcem
kněze
won
##sonová
zvládá
typickým
nemalé
##busy
pokračující
průmyslová
zwei
nami
výslu
umístěné
rozložení
popularity
liberecké
alžběta
koopera
odpočinek
oknem
sympatie
průšvih
mundial
mia
tiem
##ovníkem
nejstarším
##ňovalo
oří
oddíl
novy
svatopluk
spie
zajímal
zmínku
##ovicemi
within
tanku
vypověděl
##začních
##rovan
očividně
biden
##jíždění
mauri
nezan
dodávají
seznámí
zabrat
ohrožených
jasným
knihovně
kilometrech
poezie
sledov
lesních
oslovila
cá
nkou
kávy
relativní
opouští
jazykové
nazvaný
přispívají
##systém
clan
nadšen
centro
štěpánka
obyd
existující
prameny
nereagoval
cukrá
##äu
zánět
rut
prosazení
##77
jil
žlut
bronzovou
stihnout
brother
ferdinanda
##tisí
wei
štědrý
ore
##pc
rozvr
koudelka
companies
late
cej
pískov
odborníka
navrhne
napadli
tajemníka
nvidia
##hur
partie
brankáři
skryt
atraktiv
čhmú
##růstá
určená
ředitelé
samostatného
účelově
##kejte
propor
##emiéra
výkři
prezidentsk
zažívá
horská
pitné
exemplá
##95
pražané
manželů
severovýchodě
dukly
výcho
reprezentovat
airbus
##pře
prezidenti
čečen
výzbroj
vydržel
ilegální
zélandu
##dice
pase
ambasády
žalobě
tvere
##ön
provok
##fiel
julie
pasa
abú
úřadující
cenové
##pping
chudé
rossi
##vová
strou
roam
antikon
kempu
úžasný
skříň
kapitalismu
pluku
##ránil
spojí
anne
##solv
lanovky
karlova
momentě
odvrá
navýšit
##lun
##zdil
rovné
pronajat
vycházel
izolaci
yes
dozoru
spustí
vzdálen
##chin
vymy
pětinu
##dové
##cito
rozptý
posvát
duely
švýcarské
preferencí
necítí
přene
kaň
zapá
palestinci
##natých
withdra
nicolas
nakloně
alan
stutt
##ovkách
byzant
mučení
aukci
ostuda
##flu
slavných
poškozený
ochranných
vlé
propojit
celebra
prázdninách
koukat
touhu
provází
tempu
portrét
##vána
##léb
povinně
potomci
deep
oteplování
úhlopří
testech
gibs
entertainment
atribu
ukraden
zbožím
##athan
městečku
premiéry
##tilo
sector
sází
elektrický
přesunul
bezpreced
##ránily
nezbytn
earth
vzory
pracovalo
verni
stropu
hrdinové
leopold
ofenzivní
zahu
bojem
wagner
celníci
##entras
ukončena
zastávce
##ende
vyjet
##řicha
poskytli
odklon
kateřiny
tratích
tlustý
neznal
zakázka
reagovali
nd
doufejme
rozcest
grandslam
gord
zpravy
lenn
sloučen
franço
tvrz
světo
včela
vondr
utrp
přihlásilo
kombinací
zlepšila
members
koval
##metrové
odez
čistá
svazku
proniknout
economy
ecu
obklí
miminko
gustav
dvojn
nerez
zkoušce
výzkumy
kruhy
kapu
alcan
problematiky
líbil
ratio
spadají
sedláček
zapomněl
žlá
sebere
kamila
ráj
citron
aids
nedali
soudrž
letí
střelby
otě
odno
fake
stříle
lídry
##louval
řidičům
ukazatel
pláži
odehráli
individuálně
zadávání
fel
kovou
kazu
napsáno
reser
svobodný
zruší
dirigent
##ýšlen
předvedla
bezvědomí
zemanův
závid
spřá
řediteli
##jně
moudr
eig
jevy
smýš
tvrzen
brav
##arem
spadne
länder
##hold
stán
přinášejí
mořské
##guez
dobrovolné
fotbalistů
sedla
stěží
dzi
##cation
juraj
papri
spojující
roland
probou
rozestav
šichtařová
rozpočtem
květin
příslušnost
předloží
vystupují
##alista
vysvě
vytáhnout
ester
telem
pozdějších
výpoč
dovolání
krizové
##šova
sele
útočit
lepšího
operní
vážené
postoupila
moldav
právně
zazněla
čro
žádali
hrozit
rozšířen
královského
dotáhnout
smaz
stanovuje
islámskému
djokovič
##chie
legal
filozofické
mientras
soul
uti
napadnout
jablonce
uherském
##idential
324
reliéf
zbyl
předpoví
1916
dokázaly
middle
situac
chodby
nulu
hacer
výlety
2025
fund
dispu
navazující
škrty
trávit
ujít
##telka
frýdku
##ها
##vadě
pedagogické
##rných
prsu
častým
neoprávněně
faci
jirka
polistopad
varh
spořitelna
domek
potřebný
obuv
irska
dozvědět
##utit
obchodník
logiku
gav
japonská
nedělním
podporujeme
realitě
vii
podmínkami
obecný
zimním
boxer
vlhkost
prokuratura
výrobních
##oney
prokazatelně
natural
tělem
národu
chráněných
antropo
oslaví
dodavatelem
lensk
klesne
nelegálně
rovná
##klidu
václavu
vydána
složitý
jízdních
##aret
exekucí
porušuje
sonda
tělesné
##ovců
bug
programov
vizit
##pují
fest
vezmou
sra
lugar
##ström
pátečním
ohrani
haber
neutrali
nepokoj
pokryt
přivezl
zveřejňovat
sedmdesáti
znevýhod
rezoluce
encuent
poznali
brněnských
suverenity
##stice
spoluv
nejslab
malíře
libera
beatles
čtveřice
náh
předpovědi
zkouš
písemně
funkčního
chlubí
##álům
zdu
reflect
##teče
##atori
trosky
quo
slyší
statistický
bojím
##zové
ledové
penaltu
konektor
zveřejní
teplic
osvč
gló
lenin
jemci
sehnal
mapě
trénuje
plynule
rtu
##zej
spolupracovala
lád
počítačových
bezplatné
březina
zblí
agendu
hack
vyjma
pátá
##procentn
rizikov
zeit
studenta
ekvap
niss
animace
gera
pravicových
tune
konkurz
organizacemi
sloužící
tesla
totalitní
fen
elezn
zprone
svobodná
tec
určitého
zazněl
nejblíže
esté
##48
##voda
vědec
viktori
daná
kd
##ure
neal
sněmovnu
##mannová
zatý
starým
březen
totality
snazší
stíh
vývozu
kovanda
##árek
úmrt
jad
omezený
sebemen
zblízka
##lak
tyči
bow
živý
drtivé
běžným
předpokládané
oma
nesmr
zom
revol
radostí
líčil
korporace
cyril
federaci
převo
uherské
agenda
vinohra
##dík
prefek
samostatná
dolním
spec
##ssy
portfolio
##rier
protiúto
dopadů
guy
##iera
nepřemýš
tradičního
přáli
##entos
radaru
experimentální
křiv
svěřenci
vojákům
muhammad
##09
koe
schmid
drag
pěstí
zakázané
vyfot
způsobily
konsen
rolling
nedbalosti
plzní
konzumace
libre
channel
avant
asistenta
nezměnilo
##mata
nizozemska
##lce
tha
natočit
dospělosti
klavír
sporn
##áková
datu
vzdor
rozeb
latinské
##łu
autosalonu
kned
kluků
sobotkovi
cestovních
nešťastné
##bay
dáváme
turci
nejhez
metropolitní
##utky
věkem
moud
mše
##čci
vertik
diplom
honda
případná
vyto
panas
překvapit
uvědomu
platebn
kódu
poděkování
mrázek
benjamin
změnily
kyr
okamžité
vyhrálo
strategick
upadl
pack
ději
sněžení
oboustran
jarolím
##ňováním
železnic
demonstru
zakop
jourová
zdlouhav
systémové
jong
předejít
jup
svod
##řicí
dostání
očekávám
obhájit
##pitu
botan
poukazují
zdravotnického
východoče
bílek
zodpovědnosti
destinací
dkov
podtitu
splet
nohav
vlach
jednoducho
mismo
kalkula
látku
##adores
##fair
vyrostl
ambulan
nízkých
pospíšila
rozmístě
##rovský
pláže
levněji
nadal
srn
louce
majitelům
nagyová
zastřelil
##ether
máš
působnosti
režimů
eskal
předváno
kec
pouta
komorní
psychologie
lovu
nošení
drogami
dominika
stnance
##bst
##host
prádlo
jednotný
šťastné
hraběte
recepty
odhodlání
zlomek
ústavně
kosovu
mms
ebitel